{
  "version": "1.0",
  "truncation": null,
  "padding": null,
  "added_tokens": [
    {
      "id": 0,
      "content": "[PAD]",
      "single_word": false,
      "lstrip": false,
      "rstrip": false,
      "normalized": false,
      "special": true
    },
    {
      "id": 1,
      "content": "[CLS]",
      "single_word": false,
      "lstrip": false,
      "rstrip": false,
      "normalized": false,
      "special": true
    },
    {
      "id": 2,
      "content": "[SEP]",
      "single_word": false,
      "lstrip": false,
      "rstrip": false,
      "normalized": false,
      "special": true
    },
    {
      "id": 3,
      "content": "[MASK]",
      "single_word": false,
      "lstrip": false,
      "rstrip": false,
      "normalized": false,
      "special": true
    },
    {
      "id": 4,
      "content": "[UNK]",
      "single_word": false,
      "lstrip": false,
      "rstrip": false,
      "normalized": false,
      "special": true
    }
  ],
  "normalizer": null,
  "pre_tokenizer": {
    "type": "ByteLevel",
    "add_prefix_space": false,
    "trim_offsets": true,
    "use_regex": true
  },
  "post_processor": {
    "type": "ByteLevel",
    "add_prefix_space": true,
    "trim_offsets": false,
    "use_regex": true
  },
  "decoder": {
    "type": "ByteLevel",
    "add_prefix_space": true,
    "trim_offsets": true,
    "use_regex": true
  },
  "model": {
    "type": "BPE",
    "dropout": null,
    "unk_token": null,
    "continuing_subword_prefix": null,
    "end_of_word_suffix": null,
    "fuse_unk": false,
    "byte_fallback": false,
    "vocab": {
      "[PAD]": 0,
      "[CLS]": 1,
      "[SEP]": 2,
      "[MASK]": 3,
      "[UNK]": 4,
      "!": 5,
      "\"": 6,
      "#": 7,
      "$": 8,
      "%": 9,
      "&": 10,
      "'": 11,
      "(": 12,
      ")": 13,
      "*": 14,
      "+": 15,
      ",": 16,
      "-": 17,
      ".": 18,
      "/": 19,
      "0": 20,
      "1": 21,
      "2": 22,
      "3": 23,
      "4": 24,
      "5": 25,
      "6": 26,
      "7": 27,
      "8": 28,
      "9": 29,
      ":": 30,
      ";": 31,
      "<": 32,
      "=": 33,
      ">": 34,
      "?": 35,
      "@": 36,
      "A": 37,
      "B": 38,
      "C": 39,
      "D": 40,
      "E": 41,
      "F": 42,
      "G": 43,
      "H": 44,
      "I": 45,
      "J": 46,
      "K": 47,
      "L": 48,
      "M": 49,
      "N": 50,
      "O": 51,
      "P": 52,
      "Q": 53,
      "R": 54,
      "S": 55,
      "T": 56,
      "U": 57,
      "V": 58,
      "W": 59,
      "X": 60,
      "Y": 61,
      "Z": 62,
      "[": 63,
      "\\": 64,
      "]": 65,
      "^": 66,
      "_": 67,
      "`": 68,
      "a": 69,
      "b": 70,
      "c": 71,
      "d": 72,
      "e": 73,
      "f": 74,
      "g": 75,
      "h": 76,
      "i": 77,
      "j": 78,
      "k": 79,
      "l": 80,
      "m": 81,
      "n": 82,
      "o": 83,
      "p": 84,
      "q": 85,
      "r": 86,
      "s": 87,
      "t": 88,
      "u": 89,
      "v": 90,
      "w": 91,
      "x": 92,
      "y": 93,
      "z": 94,
      "{": 95,
      "|": 96,
      "}": 97,
      "~": 98,
      "¡": 99,
      "¢": 100,
      "£": 101,
      "¤": 102,
      "¥": 103,
      "¦": 104,
      "§": 105,
      "¨": 106,
      "©": 107,
      "ª": 108,
      "«": 109,
      "¬": 110,
      "®": 111,
      "¯": 112,
      "°": 113,
      "±": 114,
      "²": 115,
      "³": 116,
      "´": 117,
      "µ": 118,
      "¶": 119,
      "·": 120,
      "¸": 121,
      "¹": 122,
      "º": 123,
      "»": 124,
      "¼": 125,
      "½": 126,
      "¾": 127,
      "¿": 128,
      "À": 129,
      "Á": 130,
      "Â": 131,
      "Ã": 132,
      "Ä": 133,
      "Å": 134,
      "Æ": 135,
      "Ç": 136,
      "È": 137,
      "É": 138,
      "Ê": 139,
      "Ë": 140,
      "Ì": 141,
      "Í": 142,
      "Î": 143,
      "Ï": 144,
      "Ð": 145,
      "Ñ": 146,
      "Ò": 147,
      "Ó": 148,
      "Ô": 149,
      "Õ": 150,
      "Ö": 151,
      "×": 152,
      "Ø": 153,
      "Ù": 154,
      "Ú": 155,
      "Û": 156,
      "Ü": 157,
      "Ý": 158,
      "Þ": 159,
      "ß": 160,
      "à": 161,
      "á": 162,
      "â": 163,
      "ã": 164,
      "ä": 165,
      "å": 166,
      "æ": 167,
      "ç": 168,
      "è": 169,
      "é": 170,
      "ê": 171,
      "ë": 172,
      "ì": 173,
      "í": 174,
      "î": 175,
      "ï": 176,
      "ð": 177,
      "ñ": 178,
      "ò": 179,
      "ó": 180,
      "ô": 181,
      "õ": 182,
      "ö": 183,
      "÷": 184,
      "ø": 185,
      "ù": 186,
      "ú": 187,
      "û": 188,
      "ü": 189,
      "ý": 190,
      "þ": 191,
      "ÿ": 192,
      "Ā": 193,
      "ā": 194,
      "Ă": 195,
      "ă": 196,
      "Ą": 197,
      "ą": 198,
      "Ć": 199,
      "ć": 200,
      "Ĉ": 201,
      "ĉ": 202,
      "Ċ": 203,
      "ċ": 204,
      "Č": 205,
      "č": 206,
      "Ď": 207,
      "ď": 208,
      "Đ": 209,
      "đ": 210,
      "Ē": 211,
      "ē": 212,
      "Ĕ": 213,
      "ĕ": 214,
      "Ė": 215,
      "ė": 216,
      "Ę": 217,
      "ę": 218,
      "Ě": 219,
      "ě": 220,
      "Ĝ": 221,
      "ĝ": 222,
      "Ğ": 223,
      "ğ": 224,
      "Ġ": 225,
      "ġ": 226,
      "Ģ": 227,
      "ģ": 228,
      "Ĥ": 229,
      "ĥ": 230,
      "Ħ": 231,
      "ħ": 232,
      "Ĩ": 233,
      "ĩ": 234,
      "Ī": 235,
      "ī": 236,
      "Ĭ": 237,
      "ĭ": 238,
      "Į": 239,
      "į": 240,
      "İ": 241,
      "ı": 242,
      "Ĳ": 243,
      "ĳ": 244,
      "Ĵ": 245,
      "ĵ": 246,
      "Ķ": 247,
      "ķ": 248,
      "ĸ": 249,
      "Ĺ": 250,
      "ĺ": 251,
      "Ļ": 252,
      "ļ": 253,
      "Ľ": 254,
      "ľ": 255,
      "Ŀ": 256,
      "ŀ": 257,
      "Ł": 258,
      "ł": 259,
      "Ń": 260,
      "Ã©": 261,
      "en": 262,
      "on": 263,
      "es": 264,
      "er": 265,
      "ti": 266,
      "ent": 267,
      "an": 268,
      "in": 269,
      "is": 270,
      "re": 271,
      "tion": 272,
      "ra": 273,
      "it": 274,
      "âĢ": 275,
      "âĢĻ": 276,
      "le": 277,
      "pr": 278,
      "qu": 279,
      "ou": 280,
      "or": 281,
      "ment": 282,
      "ar": 283,
      "li": 284,
      "dÃ©": 285,
      "te": 286,
      "con": 287,
      "ur": 288,
      "al": 289,
      "rÃ©": 290,
      "ation": 291,
      "ant": 292,
      "ch": 293,
      "om": 294,
      "di": 295,
      "ri": 296,
      "ce": 297,
      "au": 298,
      "Ã©s": 299,
      "ai": 300,
      "se": 301,
      "ons": 302,
      "ac": 303,
      "el": 304,
      "si": 305,
      "ab": 306,
      "Ã¨": 307,
      "ci": 308,
      "at": 309,
      "de": 310,
      "res": 311,
      "ter": 312,
      "tÃ©": 313,
      "ag": 314,
      "us": 315,
      "pro": 316,
      "com": 317,
      "po": 318,
      "tr": 319,
      "les": 320,
      "fi": 321,
      "vi": 322,
      "ex": 323,
      "ap": 324,
      "me": 325,
      "as": 326,
      "lÃ©": 327,
      "am": 328,
      "que": 329,
      "ne": 330,
      "lo": 331,
      "il": 332,
      "tu": 333,
      "ve": 334,
      "im": 335,
      "op": 336,
      "par": 337,
      "Ã©e": 338,
      "ul": 339,
      "itÃ©": 340,
      "vo": 341,
      "du": 342,
      "ten": 343,
      "ins": 344,
      "our": 345,
      "ff": 346,
      "por": 347,
      "ser": 348,
      "su": 349,
      "la": 350,
      "ie": 351,
      "tra": 352,
      "tes": 353,
      "ver": 354,
      "ir": 355,
      "nÃ©": 356,
      "ait": 357,
      "lu": 358,
      "co": 359,
      "Ãª": 360,
      "ad": 361,
      "mo": 362,
      "prÃ©": 363,
      "per": 364,
      "pe": 365,
      "ro": 366,
      "ais": 367,
      "ques": 368,
      "pÃ©": 369,
      "un": 370,
      "urs": 371,
      "for": 372,
      "sou": 373,
      "end": 374,
      "ge": 375,
      "ma": 376,
      "dis": 377,
      "lement": 378,
      "cons": 379,
      "ces": 380,
      "ts": 381,
      "ations": 382,
      "min": 383,
      "ont": 384,
      "tions": 385,
      "so": 386,
      "sÃ©": 387,
      "gÃ©": 388,
      "mp": 389,
      "eu": 390,
      "ven": 391,
      "ance": 392,
      "acc": 393,
      "man": 394,
      "age": 395,
      "mÃ©": 396,
      "ue": 397,
      "tre": 398,
      "inter": 399,
      "aire": 400,
      "av": 401,
      "ord": 402,
      "comp": 403,
      "ob": 404,
      "ens": 405,
      "ence": 406,
      "ta": 407,
      "tri": 408,
      "gi": 409,
      "lan": 410,
      "lis": 411,
      "ants": 412,
      "Ã¨re": 413,
      "eur": 414,
      "Ã©r": 415,
      "aires": 416,
      "elle": 417,
      "cu": 418,
      "ig": 419,
      "able": 420,
      "ale": 421,
      "no": 422,
      "Ã©es": 423,
      "to": 424,
      "ine": 425,
      "app": 426,
      "ni": 427,
      "ans": 428,
      "mes": 429,
      "era": 430,
      "che": 431,
      "aux": 432,
      "sion": 433,
      "enti": 434,
      "ments": 435,
      "pos": 436,
      "ass": 437,
      "ati": 438,
      "mb": 439,
      "mar": 440,
      "vis": 441,
      "cer": 442,
      "cou": 443,
      "dent": 444,
      "fin": 445,
      "ire": 446,
      "ner": 447,
      "tent": 448,
      "ration": 449,
      "alis": 450,
      "des": 451,
      "Ã©t": 452,
      "prÃ©s": 453,
      "comm": 454,
      "der": 455,
      "ves": 456,
      "teurs": 457,
      "ales": 458,
      "dic": 459,
      "cl": 460,
      "pa": 461,
      "pu": 462,
      "ite": 463,
      "tru": 464,
      "bu": 465,
      "cti": 466,
      "fon": 467,
      "intÃ©": 468,
      "ler": 469,
      "lle": 470,
      "nent": 471,
      "aut": 472,
      "da": 473,
      "mon": 474,
      "st": 475,
      "pri": 476,
      "fic": 477,
      "ph": 478,
      "ran": 479,
      "ouv": 480,
      "lib": 481,
      "lic": 482,
      "trans": 483,
      "port": 484,
      "bi": 485,
      "ction": 486,
      "gu": 487,
      "Ã®": 488,
      "ers": 489,
      "tis": 490,
      "iss": 491,
      "itÃ©s": 492,
      "teur": 493,
      "bles": 494,
      "cri": 495,
      "gra": 496,
      "je": 497,
      "mis": 498,
      "pi": 499,
      "titu": 500,
      "dÃ©p": 501,
      "elles": 502,
      "oc": 503,
      "parti": 504,
      "cr": 505,
      "ient": 506,
      "lin": 507,
      "rer": 508,
      "tique": 509,
      "lig": 510,
      "cep": 511,
      "nement": 512,
      "form": 513,
      "cÃ©": 514,
      "do": 515,
      "ion": 516,
      "org": 517,
      "sement": 518,
      "els": 519,
      "ables": 520,
      "cul": 521,
      "mi": 522,
      "ren": 523,
      "Ã§": 524,
      "Ã©ra": 525,
      "ist": 526,
      "iter": 527,
      "cher": 528,
      "ture": 529,
      "emp": 530,
      "th": 531,
      "vÃ©": 532,
      "ise": 533,
      "quer": 534,
      "conn": 535,
      "amÃ©": 536,
      "cent": 537,
      "car": 538,
      "crÃ©": 539,
      "dre": 540,
      "jou": 541,
      "jus": 542,
      "ux": 543,
      "Ã´": 544,
      "til": 545,
      "qui": 546,
      "organ": 547,
      "ali": 548,
      "ble": 549,
      "bil": 550,
      "ca": 551,
      "hu": 552,
      "lab": 553,
      "men": 554,
      "ron": 555,
      "ang": 556,
      "ante": 557,
      "isation": 558,
      "aient": 559,
      "met": 560,
      "lÃ©g": 561,
      "cis": 562,
      "fer": 563,
      "lÃ¨": 564,
      "nes": 565,
      "tÃ©s": 566,
      "val": 567,
      "ente": 568,
      "anti": 569,
      "inc": 570,
      "lex": 571,
      "soci": 572,
      "don": 573,
      "sur": 574,
      "tur": 575,
      "va": 576,
      "indi": 577,
      "rÃ©s": 578,
      "Ã¨res": 579,
      "appro": 580,
      "ffe": 581,
      "ffi": 582,
      "gar": 583,
      "ju": 584,
      "lar": 585,
      "rou": 586,
      "sy": 587,
      "uti": 588,
      "vou": 589,
      "eng": 590,
      "tif": 591,
      "rec": 592,
      "ouver": 593,
      "Ã¨s": 594,
      "exp": 595,
      "bli": 596,
      "cra": 597,
      "din": 598,
      "lon": 599,
      "pour": 600,
      "tin": 601,
      "ines": 602,
      "rÃ©e": 603,
      "tro": 604,
      "uni": 605,
      "den": 606,
      "dou": 607,
      "fÃ©": 608,
      "fra": 609,
      "go": 610,
      "mer": 611,
      "tou": 612,
      "vent": 613,
      "tiques": 614,
      "ann": 615,
      "iste": 616,
      "pres": 617,
      "lim": 618,
      "dÃ©f": 619,
      "tement": 620,
      "semb": 621,
      "atten": 622,
      "tÃ©e": 623,
      "produ": 624,
      "imp": 625,
      "pec": 626,
      "tribu": 627,
      "prÃ©sent": 628,
      "cor": 629,
      "ez": 630,
      "ions": 631,
      "os": 632,
      "rÃª": 633,
      "sa": 634,
      "sus": 635,
      "enne": 636,
      "repr": 637,
      "uses": 638,
      "posi": 639,
      "poser": 640,
      "para": 641,
      "cour": 642,
      "gment": 643,
      "id": 644,
      "jour": 645,
      "mul": 646,
      "ru": 647,
      "ses": 648,
      "Ã»": 649,
      "Ãł": 650,
      "tive": 651,
      "rait": 652,
      "prim": 653,
      "consi": 654,
      "alitÃ©": 655,
      "rÃ©g": 656,
      "inst": 657,
      "gÃ©nÃ©": 658,
      "eux": 659,
      "accord": 660,
      "amÃ©li": 661,
      "bat": 662,
      "dam": 663,
      "fa": 664,
      "fu": 665,
      "ger": 666,
      "hon": 667,
      "ique": 668,
      "jo": 669,
      "pen": 670,
      "rent": 671,
      "ure": 672,
      "vre": 673,
      "ennent": 674,
      "iser": 675,
      "ret": 676,
      "tionn": 677,
      "rap": 678,
      "its": 679,
      "contra": 680,
      "antes": 681,
      "augment": 682,
      "ail": 683,
      "accep": 684,
      "sig": 685,
      "sions": 686,
      "voir": 687,
      "ds": 688,
      "fac": 689,
      "gie": 690,
      "gue": 691,
      "lac": 692,
      "na": 693,
      "nation": 694,
      "ol": 695,
      "spÃ©": 696,
      "tat": 697,
      "Â«": 698,
      "Â»": 699,
      "Ã©n": 700,
      "Ã©ch": 701,
      "reg": 702,
      "quÃ©": 703,
      "urer": 704,
      "diff": 705,
      "ress": 706,
      "tÃ©es": 707,
      "ille": 708,
      "voy": 709,
      "sub": 710,
      "sui": 711,
      "vers": 712,
      "col": 713,
      "adop": 714,
      "main": 715,
      "truc": 716,
      "ctif": 717,
      "utilis": 718,
      "ban": 719,
      "bar": 720,
      "clu": 721,
      "em": 722,
      "har": 723,
      "hait": 724,
      "pon": 725,
      "tant": 726,
      "vel": 727,
      "Ã¢": 728,
      "Ã©g": 729,
      "ents": 730,
      "ises": 731,
      "prom": 732,
      "all": 733,
      "rieur": 734,
      "aus": 735,
      "aille": 736,
      "abil": 737,
      "posÃ©": 738,
      "loy": 739,
      "opÃ©": 740,
      "souhait": 741,
      "endre": 742,
      "venir": 743,
      "obser": 744,
      "appli": 745,
      "coura": 746,
      "autor": 747,
      "occu": 748,
      "considÃ©": 749,
      "00": 750,
      "ara": 751,
      "aff": 752,
      "be": 753,
      "cro": 754,
      "dus": 755,
      "effe": 756,
      "iti": 757,
      "lles": 758,
      "mal": 759,
      "pla": 760,
      "ront": 761,
      "son": 762,
      "sch": 763,
      "uer": 764,
      "ences": 765,
      "esp": 766,
      "esti": 767,
      "isme": 768,
      "ref": 769,
      "dÃ©e": 770,
      "ches": 771,
      "abord": 772,
      "Ã¨me": 773,
      "atta": 774,
      "dev": 775,
      "pose": 776,
      "exam": 777,
      "appr": 778,
      "asse": 779,
      "lÃ©es": 780,
      "logi": 781,
      "sup": 782,
      "trav": 783,
      "pÃ©ri": 784,
      "constitu": 785,
      "eure": 786,
      "intÃ©g": 787,
      "fication": 788,
      "spÃ©ci": 789,
      "ba": 790,
      "ber": 791,
      "can": 792,
      "dom": 793,
      "fÃ©r": 794,
      "hi": 795,
      "ira": 796,
      "lh": 797,
      "ls": 798,
      "len": 799,
      "lor": 800,
      "mu": 801,
      "mag": 802,
      "nÃ©s": 803,
      "ois": 804,
      "ora": 805,
      "off": 806,
      "pre": 807,
      "rons": 808,
      "tons": 809,
      "vit": 810,
      "Ã©tu": 811,
      "est": 812,
      "tiv": 813,
      "iner": 814,
      "raient": 815,
      "quent": 816,
      "quant": 817,
      "lir": 818,
      "lier": 819,
      "dÃ©s": 820,
      "dÃ©mo": 821,
      "concer": 822,
      "dire": 823,
      "cip": 824,
      "prof": 825,
      "fier": 826,
      "lob": 827,
      "loc": 828,
      "institu": 829,
      "solu": 830,
      "commun": 831,
      "ctive": 832,
      "dÃ©pend": 833,
      "connais": 834,
      "organis": 835,
      "identi": 836,
      "amÃ©lior": 837,
      "velop": 838,
      "asi": 839,
      "ajou": 840,
      "bÃ©": 841,
      "cap": 842,
      "fri": 843,
      "four": 844,
      "fait": 845,
      "hÃ©r": 846,
      "mat": 847,
      "nou": 848,
      "rÃ¨": 849,
      "tation": 850,
      "tour": 851,
      "tage": 852,
      "Ã¯": 853,
      "Ã©qui": 854,
      "ende": 855,
      "anci": 856,
      "ange": 857,
      "rais": 858,
      "ito": 859,
      "ites": 860,
      "ori": 861,
      "orient": 862,
      "ari": 863,
      "dÃ©fin": 864,
      "telle": 865,
      "contribu": 866,
      "alle": 867,
      "rÃ©alis": 868,
      "cha": 869,
      "char": 870,
      "rir": 871,
      "sex": 872,
      "ellement": 873,
      "cir": 874,
      "deman": 875,
      "respec": 876,
      "ages": 877,
      "ill": 878,
      "import": 879,
      "oph": 880,
      "duc": 881,
      "portu": 882,
      "nÃ©go": 883,
      "permet": 884,
      "minis": 885,
      "euse": 886,
      "land": 887,
      "ative": 888,
      "puis": 889,
      "lication": 890,
      "issent": 891,
      "bilitÃ©": 892,
      "labor": 893,
      "explo": 894,
      "position": 895,
      "nÃ©goci": 896,
      "alement": 897,
      "bon": 898,
      "bre": 899,
      "cat": 900,
      "ctu": 901,
      "dant": 902,
      "ffic": 903,
      "gent": 904,
      "gran": 905,
      "hÃ©s": 906,
      "hab": 907,
      "mil": 908,
      "mont": 909,
      "nor": 910,
      "nom": 911,
      "pra": 912,
      "pou": 913,
      "rant": 914,
      "stra": 915,
      "struc": 916,
      "tan": 917,
      "tte": 918,
      "Åĵ": 919,
      "Ã©vo": 920,
      "entrepr": 921,
      "inf": 922,
      "ing": 923,
      "indre": 924,
      "istes": 925,
      "ral": 926,
      "ras": 927,
      "itu": 928,
      "itation": 929,
      "itaires": 930,
      "leur": 931,
      "conom": 932,
      "chi": 933,
      "dim": 934,
      "accomp": 935,
      "cident": 936,
      "ato": 937,
      "ats": 938,
      "dex": 939,
      "tera": 940,
      "user": 941,
      "compÃ©": 942,
      "viron": 943,
      "exer": 944,
      "associ": 945,
      "ffor": 946,
      "porte": 947,
      "Ãªte": 948,
      "peu": 949,
      "cess": 950,
      "venu": 951,
      "mÃ©di": 952,
      "avant": 953,
      "Ã¨rement": 954,
      "crimin": 955,
      "justi": 956,
      "ffici": 957,
      "diffÃ©r": 958,
      "dÃ©mocra": 959,
      "cur": 960,
      "cam": 961,
      "dop": 962,
      "dro": 963,
      "emb": 964,
      "fais": 965,
      "ga": 966,
      "ges": 967,
      "ires": 968,
      "lou": 969,
      "mig": 970,
      "nu": 971,
      "nÃ©e": 972,
      "pes": 973,
      "pel": 974,
      "pouv": 975,
      "ris": 976,
      "sor": 977,
      "sant": 978,
      "sau": 979,
      "senti": 980,
      "ton": 981,
      "tres": 982,
      "une": 983,
      "vra": 984,
      "yer": 985,
      "Ã©le": 986,
      "Ã©conom": 987,
      "encoura": 988,
      "tives": 989,
      "entra": 990,
      "ances": 991,
      "inves": 992,
      "inform": 993,
      "isant": 994,
      "isse": 995,
      "prin": 996,
      "pris": 997,
      "quo": 998,
      "quel": 999,
      "quÃ©e": 1000,
      "ard": 1001,
      "dÃ©velop": 1002,
      "tech": 1003,
      "conf": 1004,
      "rÃ©si": 1005,
      "rÃ©gi": 1006,
      "direc": 1007,
      "air": 1008,
      "actu": 1009,
      "dem": 1010,
      "tÃ©lÃ©": 1011,
      "ager": 1012,
      "prob": 1013,
      "poli": 1014,
      "trer": 1015,
      "fix": 1016,
      "vie": 1017,
      "viend": 1018,
      "viol": 1019,
      "exis": 1020,
      "exemp": 1021,
      "lÃ©e": 1022,
      "lÃ©ment": 1023,
      "lÃ©gi": 1024,
      "vement": 1025,
      "ulation": 1026,
      "tenu": 1027,
      "nÃ©g": 1028,
      "nÃ©es": 1029,
      "nÃ©fi": 1030,
      "nÃ©cess": 1031,
      "Ãªme": 1032,
      "adres": 1033,
      "prÃ©cis": 1034,
      "prÃ©occu": 1035,
      "aise": 1036,
      "constru": 1037,
      "obje": 1038,
      "oblig": 1039,
      "appel": 1040,
      "Ã©tab": 1041,
      "prÃ©si": 1042,
      "publi": 1043,
      "fonda": 1044,
      "intÃ©rÃª": 1045,
      "Ã®tre": 1046,
      "culture": 1047,
      "renfor": 1048,
      "Ã´t": 1049,
      "larg": 1050,
      "vous": 1051,
      "primer": 1052,
      "bÃ©nÃ©fi": 1053,
      "ateurs": 1054,
      "affi": 1055,
      "bo": 1056,
      "bas": 1057,
      "bour": 1058,
      "cal": 1059,
      "cla": 1060,
      "ctions": 1061,
      "dar": 1062,
      "dur": 1063,
      "eurs": 1064,
      "fis": 1065,
      "gro": 1066,
      "gence": 1067,
      "ition": 1068,
      "iques": 1069,
      "lant": 1070,
      "lam": 1071,
      "non": 1072,
      "nat": 1073,
      "nitÃ©": 1074,
      "pl": 1075,
      "pac": 1076,
      "plan": 1077,
      "rom": 1078,
      "sen": 1079,
      "san": 1080,
      "tab": 1081,
      "vation": 1082,
      "Ã©ri": 1083,
      "Ã©tr": 1084,
      "Ã©val": 1085,
      "Ã©labor": 1086,
      "envis": 1087,
      "environ": 1088,
      "onner": 1089,
      "tic": 1090,
      "ani": 1091,
      "int": 1092,
      "inno": 1093,
      "issement": 1094,
      "reti": 1095,
      "remp": 1096,
      "reprÃ©sent": 1097,
      "rations": 1098,
      "radic": 1099,
      "pren": 1100,
      "prend": 1101,
      "dÃ©ci": 1102,
      "dÃ©cis": 1103,
      "condu": 1104,
      "contre": 1105,
      "contin": 1106,
      "alli": 1107,
      "alitÃ©s": 1108,
      "rÃ©es": 1109,
      "auto": 1110,
      "Ã¨te": 1111,
      "Ã¨ne": 1112,
      "cie": 1113,
      "civi": 1114,
      "tÃ©rieur": 1115,
      "ussi": 1116,
      "comb": 1117,
      "trouv": 1118,
      "fiÃ©": 1119,
      "fique": 1120,
      "vions": 1121,
      "vidu": 1122,
      "loi": 1123,
      "vez": 1124,
      "part": 1125,
      "vol": 1126,
      "due": 1127,
      "tence": 1128,
      "tenus": 1129,
      "tenir": 1130,
      "trait": 1131,
      "Ãªtre": 1132,
      "interven": 1133,
      "avor": 1134,
      "trie": 1135,
      "lande": 1136,
      "europÃ©": 1137,
      "Ã©rer": 1138,
      "toire": 1139,
      "appu": 1140,
      "posÃ©s": 1141,
      "assur": 1142,
      "atis": 1143,
      "Ã©tat": 1144,
      "communi": 1145,
      "libre": 1146,
      "libÃ©ra": 1147,
      "bien": 1148,
      "crit": 1149,
      "istance": 1150,
      "amÃ©ri": 1151,
      "jusqu": 1152,
      "tifs": 1153,
      "trodu": 1154,
      "annon": 1155,
      "semble": 1156,
      "impli": 1157,
      "harmon": 1158,
      "examin": 1159,
      "travail": 1160,
      "connaiss": 1161,
      "fourn": 1162,
      "nous": 1163,
      "ministra": 1164,
      "hÃ©sion": 1165,
      "Åĵu": 1166,
      "fondament": 1167,
      "adÃ©": 1168,
      "ach": 1169,
      "affe": 1170,
      "bou": 1171,
      "bri": 1172,
      "ck": 1173,
      "cre": 1174,
      "cau": 1175,
      "cÃ©e": 1176,
      "cad": 1177,
      "dence": 1178,
      "effor": 1179,
      "fran": 1180,
      "gouver": 1181,
      "ho": 1182,
      "heure": 1183,
      "if": 1184,
      "iÃ¨me": 1185,
      "ll": 1186,
      "lit": 1187,
      "lation": 1188,
      "lons": 1189,
      "mor": 1190,
      "nel": 1191,
      "nie": 1192,
      "pons": 1193,
      "pens": 1194,
      "pass": 1195,
      "sag": 1196,
      "sÃ»": 1197,
      "satis": 1198,
      "table": 1199,
      "use": 1200,
      "usement": 1201,
      "vant": 1202,
      "vitÃ©": 1203,
      "ys": 1204,
      "yen": 1205,
      "Ã©qu": 1206,
      "Ã©vi": 1207,
      "Ã©ten": 1208,
      "Ã©co": 1209,
      "Ã©ner": 1210,
      "Ã©larg": 1211,
      "erci": 1212,
      "tip": 1213,
      "entes": 1214,
      "anim": 1215,
      "inten": 1216,
      "intes": 1217,
      "initi": 1218,
      "indÃ©pend": 1219,
      "rele": 1220,
      "rela": 1221,
      "reven": 1222,
      "remar": 1223,
      "rab": 1224,
      "rable": 1225,
      "itants": 1226,
      "itali": 1227,
      "let": 1228,
      "prÃ¨s": 1229,
      "orig": 1230,
      "arri": 1231,
      "limin": 1232,
      "dÃ©si": 1233,
      "dÃ©rou": 1234,
      "dÃ©bat": 1235,
      "contr": 1236,
      "conser": 1237,
      "conven": 1238,
      "conclu": 1239,
      "uri": 1240,
      "aly": 1241,
      "rÃ©du": 1242,
      "rÃ©pon": 1243,
      "rÃ©solu": 1244,
      "cho": 1245,
      "omÃ©": 1246,
      "dio": 1247,
      "aud": 1248,
      "autre": 1249,
      "aider": 1250,
      "acitÃ©": 1251,
      "simp": 1252,
      "abs": 1253,
      "cier": 1254,
      "atÃ©ra": 1255,
      "terr": 1256,
      "termin": 1257,
      "agri": 1258,
      "agne": 1259,
      "prog": 1260,
      "poir": 1261,
      "viennent": 1262,
      "exig": 1263,
      "appor": 1264,
      "ambi": 1265,
      "ope": 1266,
      "opÃ©ra": 1267,
      "instru": 1268,
      "ffis": 1269,
      "lution": 1270,
      "administra": 1271,
      "mod": 1272,
      "modi": 1273,
      "prÃ©cÃ©": 1274,
      "person": 1275,
      "aises": 1276,
      "forme": 1277,
      "sous": 1278,
      "souti": 1279,
      "gement": 1280,
      "maj": 1281,
      "consac": 1282,
      "sÃ©ri": 1283,
      "mand": 1284,
      "agement": 1285,
      "ueil": 1286,
      "euro": 1287,
      "tolÃ©": 1288,
      "posent": 1289,
      "vision": 1290,
      "dente": 1291,
      "alisation": 1292,
      "commen": 1293,
      "Ã®t": 1294,
      "graph": 1295,
      "tils": 1296,
      "hui": 1297,
      "human": 1298,
      "anger": 1299,
      "tures": 1300,
      "individu": 1301,
      "appropri": 1302,
      "pression": 1303,
      "rappel": 1304,
      "subst": 1305,
      "effectu": 1306,
      "logique": 1307,
      "lors": 1308,
      "frica": 1309,
      "rÃ¨g": 1310,
      "atoire": 1311,
      "entraÃ®": 1312,
      "nature": 1313,
      "environnement": 1314,
      "affec": 1315,
      "cadre": 1316,
      "ay": 1317,
      "ace": 1318,
      "ave": 1319,
      "aine": 1320,
      "bes": 1321,
      "bur": 1322,
      "bel": 1323,
      "bul": 1324,
      "ct": 1325,
      "cy": 1326,
      "cin": 1327,
      "cÃ©s": 1328,
      "cÃ©es": 1329,
      "cteurs": 1330,
      "cÃ´": 1331,
      "cito": 1332,
      "dy": 1333,
      "dit": 1334,
      "dons": 1335,
      "diter": 1336,
      "euses": 1337,
      "effic": 1338,
      "fai": 1339,
      "fam": 1340,
      "flu": 1341,
      "flex": 1342,
      "favor": 1343,
      "gh": 1344,
      "gÃ©s": 1345,
      "gag": 1346,
      "grou": 1347,
      "hy": 1348,
      "hom": 1349,
      "idÃ©": 1350,
      "ici": 1351,
      "jeu": 1352,
      "juri": 1353,
      "mou": 1354,
      "mation": 1355,
      "mas": 1356,
      "nis": 1357,
      "oli": 1358,
      "oration": 1359,
      "offici": 1360,
      "pp": 1361,
      "ption": 1362,
      "pau": 1363,
      "pas": 1364,
      "plu": 1365,
      "pÃª": 1366,
      "rance": 1367,
      "sal": 1368,
      "ster": 1369,
      "slo": 1370,
      "ttes": 1371,
      "tait": 1372,
      "um": 1373,
      "vu": 1374,
      "vÃ©e": 1375,
      "vÃ©r": 1376,
      "Ã©tÃ©": 1377,
      "Ã©lÃ©": 1378,
      "Ã©lo": 1379,
      "ense": 1380,
      "endu": 1381,
      "essenti": 1382,
      "tig": 1383,
      "tir": 1384,
      "tini": 1385,
      "tiers": 1386,
      "andon": 1387,
      "ints": 1388,
      "infra": 1389,
      "indus": 1390,
      "ister": 1391,
      "isÃ©es": 1392,
      "reli": 1393,
      "rales": 1394,
      "rables": 1395,
      "pron": 1396,
      "prÃª": 1397,
      "quis": 1398,
      "quat": 1399,
      "oubli": 1400,
      "arrÃª": 1401,
      "dÃ©tru": 1402,
      "tex": 1403,
      "temp": 1404,
      "condi": 1405,
      "content": 1406,
      "aller": 1407,
      "rÃ©di": 1408,
      "rÃ©jou": 1409,
      "change": 1410,
      "dimin": 1411,
      "rions": 1412,
      "cell": 1413,
      "aujour": 1414,
      "aie": 1415,
      "aide": 1416,
      "sez": 1417,
      "sements": 1418,
      "action": 1419,
      "sive": 1420,
      "sible": 1421,
      "abou": 1422,
      "ablement": 1423,
      "abandon": 1424,
      "Ã¨rent": 1425,
      "ath": 1426,
      "attribu": 1427,
      "deur": 1428,
      "deme": 1429,
      "respons": 1430,
      "proc": 1431,
      "protÃ©": 1432,
      "provo": 1433,
      "propor": 1434,
      "procÃ©": 1435,
      "poten": 1436,
      "fiÃ©s": 1437,
      "fiÃ©e": 1438,
      "vig": 1439,
      "vir": 1440,
      "vient": 1441,
      "viens": 1442,
      "exist": 1443,
      "amment": 1444,
      "nements": 1445,
      "illÃ©g": 1446,
      "insta": 1447,
      "sug": 1448,
      "lais": 1449,
      "lait": 1450,
      "coÃ»": 1451,
      "adap": 1452,
      "adhÃ©sion": 1453,
      "prÃ©ci": 1454,
      "prÃ©par": 1455,
      "peti": 1456,
      "pement": 1457,
      "souff": 1458,
      "matique": 1459,
      "discu": 1460,
      "constat": 1461,
      "minim": 1462,
      "sol": 1463,
      "accro": 1464,
      "avis": 1465,
      "avons": 1466,
      "ordre": 1467,
      "compli": 1468,
      "ign": 1469,
      "application": 1470,
      "posÃ©e": 1471,
      "assurer": 1472,
      "atif": 1473,
      "mbre": 1474,
      "march": 1475,
      "certa": 1476,
      "coup": 1477,
      "financi": 1478,
      "aliser": 1479,
      "aliste": 1480,
      "commerci": 1481,
      "clar": 1482,
      "bud": 1483,
      "stabil": 1484,
      "tissement": 1485,
      "criti": 1486,
      "particu": 1487,
      "mention": 1488,
      "lÃ©gis": 1489,
      "inclu": 1490,
      "rÃ©sul": 1491,
      "garanti": 1492,
      "syn": 1493,
      "touch": 1494,
      "attention": 1495,
      "cours": 1496,
      "multip": 1497,
      "tivement": 1498,
      "rÃ©gul": 1499,
      "rÃ©glement": 1500,
      "sign": 1501,
      "facil": 1502,
      "regis": 1503,
      "regret": 1504,
      "ctifs": 1505,
      "ailleurs": 1506,
      "posÃ©es": 1507,
      "aborder": 1508,
      "intÃ©gration": 1509,
      "premi": 1510,
      "profes": 1511,
      "endement": 1512,
      "structure": 1513,
      "compÃ©ti": 1514,
      "migration": 1515,
      "princip": 1516,
      "techno": 1517,
      "rÃ©gion": 1518,
      "adresse": 1519,
      "prÃ©occup": 1520,
      "intÃ©rÃªt": 1521,
      "affir": 1522,
      "contrÃ´": 1523,
      "diterran": 1524,
      "aujourd": 1525,
      "potenti": 1526,
      "ao": 1527,
      "ade": 1528,
      "aver": 1529,
      "ache": 1530,
      "avoir": 1531,
      "br": 1532,
      "bal": 1533,
      "blic": 1534,
      "cation": 1535,
      "ctÃ©": 1536,
      "cas": 1537,
      "citÃ©": 1538,
      "cun": 1539,
      "cto": 1540,
      "dra": 1541,
      "ditÃ©": 1542,
      "danger": 1543,
      "et": 1544,
      "eth": 1545,
      "fab": 1546,
      "fron": 1547,
      "fois": 1548,
      "gen": 1549,
      "gri": 1550,
      "gÃ©e": 1551,
      "hor": 1552,
      "hau": 1553,
      "heur": 1554,
      "ies": 1555,
      "ki": 1556,
      "ko": 1557,
      "lal": 1558,
      "lau": 1559,
      "lus": 1560,
      "lacc": 1561,
      "linter": 1562,
      "lÃł": 1563,
      "mons": 1564,
      "mac": 1565,
      "mÃ©e": 1566,
      "mÃª": 1567,
      "nau": 1568,
      "nam": 1569,
      "nul": 1570,
      "nouv": 1571,
      "ot": 1572,
      "ole": 1573,
      "ps": 1574,
      "pan": 1575,
      "ple": 1576,
      "pte": 1577,
      "pie": 1578,
      "rence": 1579,
      "som": 1580,
      "sais": 1581,
      "stri": 1582,
      "tal": 1583,
      "tail": 1584,
      "uation": 1585,
      "uel": 1586,
      "uelle": 1587,
      "vÃ©s": 1588,
      "vas": 1589,
      "vÃ©es": 1590,
      "viter": 1591,
      "we": 1592,
      "wal": 1593,
      "xim": 1594,
      "yens": 1595,
      "Ã«": 1596,
      "Ã¶": 1597,
      "Ã¹": 1598,
      "Ã©ment": 1599,
      "Ã©rÃ©": 1600,
      "Ã©cu": 1601,
      "Ã©do": 1602,
      "Ã©met": 1603,
      "Ã©vent": 1604,
      "Ã©duc": 1605,
      "enf": 1606,
      "ennes": 1607,
      "onn": 1608,
      "ontils": 1609,
      "erre": 1610,
      "erait": 1611,
      "tiens": 1612,
      "tilis": 1613,
      "tirer": 1614,
      "tiennent": 1615,
      "entam": 1616,
      "anie": 1617,
      "analy": 1618,
      "ino": 1619,
      "inte": 1620,
      "indu": 1621,
      "indic": 1622,
      "introdu": 1623,
      "isent": 1624,
      "isÃ©s": 1625,
      "rez": 1626,
      "requ": 1627,
      "rece": 1628,
      "reau": 1629,
      "recom": 1630,
      "reje": 1631,
      "reconn": 1632,
      "relÃ¨": 1633,
      "rejo": 1634,
      "rai": 1635,
      "rati": 1636,
      "rale": 1637,
      "ralis": 1638,
      "rapi": 1639,
      "itaire": 1640,
      "pru": 1641,
      "prun": 1642,
      "prouv": 1643,
      "quÃ©s": 1644,
      "quil": 1645,
      "quali": 1646,
      "ordÃ©": 1647,
      "ortis": 1648,
      "liers": 1649,
      "dÃ©mar": 1650,
      "dÃ©bu": 1651,
      "dÃ©mon": 1652,
      "dÃ©clar": 1653,
      "dÃ©tail": 1654,
      "tez": 1655,
      "telles": 1656,
      "contes": 1657,
      "concent": 1658,
      "concrÃ©": 1659,
      "conva": 1660,
      "condam": 1661,
      "conjo": 1662,
      "ures": 1663,
      "rÃ©ser": 1664,
      "rÃ©pÃ©": 1665,
      "rÃ©vis": 1666,
      "rÃ©cent": 1667,
      "rÃ©fu": 1668,
      "rÃ©fÃ©r": 1669,
      "chu": 1670,
      "chy": 1671,
      "chons": 1672,
      "did": 1673,
      "die": 1674,
      "dien": 1675,
      "dies": 1676,
      "diri": 1677,
      "diver": 1678,
      "seu": 1679,
      "seur": 1680,
      "act": 1681,
      "activ": 1682,
      "accident": 1683,
      "sibles": 1684,
      "Ã¨de": 1685,
      "Ã¨nes": 1686,
      "atte": 1687,
      "attent": 1688,
      "dement": 1689,
      "tÃ©ri": 1690,
      "agent": 1691,
      "profon": 1692,
      "propri": 1693,
      "progra": 1694,
      "comment": 1695,
      "combat": 1696,
      "pol": 1697,
      "pop": 1698,
      "trou": 1699,
      "troph": 1700,
      "fig": 1701,
      "exprim": 1702,
      "exclu": 1703,
      "expÃ©ri": 1704,
      "extÃ©rieur": 1705,
      "appar": 1706,
      "mement": 1707,
      "meille": 1708,
      "neu": 1709,
      "lop": 1710,
      "los": 1711,
      "lois": 1712,
      "iller": 1713,
      "veaux": 1714,
      "opportu": 1715,
      "parlement": 1716,
      "vois": 1717,
      "voit": 1718,
      "voter": 1719,
      "tenant": 1720,
      "porter": 1721,
      "portÃ©": 1722,
      "ports": 1723,
      "super": 1724,
      "suffis": 1725,
      "lad": 1726,
      "traite": 1727,
      "cole": 1728,
      "coord": 1729,
      "cohÃ©r": 1730,
      "Ãªtres": 1731,
      "admis": 1732,
      "moyen": 1733,
      "prÃ©ten": 1734,
      "perti": 1735,
      "perpÃ©": 1736,
      "perman": 1737,
      "roy": 1738,
      "pÃ©n": 1739,
      "formes": 1740,
      "soule": 1741,
      "soumis": 1742,
      "geant": 1743,
      "maxim": 1744,
      "dispar": 1745,
      "distin": 1746,
      "discrimin": 1747,
      "consom": 1748,
      "soli": 1749,
      "gÃ©es": 1750,
      "accueil": 1751,
      "mÃ©dic": 1752,
      "mÃ©can": 1753,
      "internation": 1754,
      "avan": 1755,
      "tax": 1756,
      "ignement": 1757,
      "not": 1758,
      "nier": 1759,
      "nique": 1760,
      "niers": 1761,
      "chement": 1762,
      "atives": 1763,
      "couver": 1764,
      "finance": 1765,
      "alistes": 1766,
      "Ã©tait": 1767,
      "diction": 1768,
      "clus": 1769,
      "clair": 1770,
      "pays": 1771,
      "public": 1772,
      "ctives": 1773,
      "fonction": 1774,
      "mondi": 1775,
      "prior": 1776,
      "fications": 1777,
      "phon": 1778,
      "lications": 1779,
      "transpar": 1780,
      "portation": 1781,
      "bio": 1782,
      "gues": 1783,
      "issant": 1784,
      "dÃ©ploy": 1785,
      "occa": 1786,
      "particip": 1787,
      "cru": 1788,
      "cepti": 1789,
      "former": 1790,
      "formation": 1791,
      "Ã§ant": 1792,
      "Ã§ons": 1793,
      "emploi": 1794,
      "quiÃ©tu": 1795,
      "organisation": 1796,
      "bilatÃ©ra": 1797,
      "cara": 1798,
      "huma": 1799,
      "incap": 1800,
      "approche": 1801,
      "approfon": 1802,
      "judi": 1803,
      "voud": 1804,
      "engagement": 1805,
      "ouverture": 1806,
      "poursui": 1807,
      "fÃ©dÃ©": 1808,
      "fÃ©lic": 1809,
      "tout": 1810,
      "attendre": 1811,
      "journ": 1812,
      "accorder": 1813,
      "face": 1814,
      "honora": 1815,
      "augmenter": 1816,
      "Ã©nor": 1817,
      "utilisation": 1818,
      "emprun": 1819,
      "abilitÃ©": 1820,
      "appliquer": 1821,
      "autorisation": 1822,
      "000": 1823,
      "magne": 1824,
      "institutionn": 1825,
      "communaut": 1826,
      "capit": 1827,
      "frique": 1828,
      "faits": 1829,
      "dÃ©fini": 1830,
      "allemagne": 1831,
      "portug": 1832,
      "puisqu": 1833,
      "habitu": 1834,
      "stratÃ©": 1835,
      "accompag": 1836,
      "association": 1837,
      "mÃ©dia": 1838,
      "sauve": 1839,
      "tÃ©lÃ©phon": 1840,
      "existence": 1841,
      "nÃ©gli": 1842,
      "fisc": 1843,
      "paci": 1844,
      "Ã©trang": 1845,
      "envisage": 1846,
      "dÃ©cision": 1847,
      "continu": 1848,
      "volont": 1849,
      "intervention": 1850,
      "amÃ©rica": 1851,
      "harmonisation": 1852,
      "Åĵuvre": 1853,
      "gouvernement": 1854,
      "origine": 1855,
      "progres": 1856,
      "major": 1857,
      "substanti": 1858,
      "lÃ©gisla": 1859,
      "syndic": 1860,
      "rÃ©gular": 1861,
      "profession": 1862,
      "diterranÃ©": 1863,
      "fabri": 1864,
      "program": 1865,
      "af": 1866,
      "az": 1867,
      "avi": 1868,
      "ajus": 1869,
      "aprÃ¨s": 1870,
      "africa": 1871,
      "bit": 1872,
      "bab": 1873,
      "cs": 1874,
      "cen": 1875,
      "cli": 1876,
      "cus": 1877,
      "clÃ©": 1878,
      "ctes": 1879,
      "cteur": 1880,
      "dj": 1881,
      "dag": 1882,
      "dad": 1883,
      "dinter": 1884,
      "dite": 1885,
      "ed": 1886,
      "fo": 1887,
      "fau": 1888,
      "fat": 1889,
      "feu": 1890,
      "grÃ©": 1891,
      "gas": 1892,
      "gÃª": 1893,
      "grec": 1894,
      "glob": 1895,
      "his": 1896,
      "hou": 1897,
      "haus": 1898,
      "ibles": 1899,
      "ible": 1900,
      "ibilitÃ©": 1901,
      "ky": 1902,
      "kra": 1903,
      "kara": 1904,
      "lent": 1905,
      "lag": 1906,
      "litÃ©": 1907,
      "lour": 1908,
      "lance": 1909,
      "ms": 1910,
      "mment": 1911,
      "mau": 1912,
      "mÃ©s": 1913,
      "mie": 1914,
      "mais": 1915,
      "maire": 1916,
      "mÃªme": 1917,
      "nit": 1918,
      "nant": 1919,
      "nons": 1920,
      "nci": 1921,
      "nour": 1922,
      "nav": 1923,
      "nord": 1924,
      "nelle": 1925,
      "nera": 1926,
      "nelles": 1927,
      "og": 1928,
      "ore": 1929,
      "opo": 1930,
      "ola": 1931,
      "ogue": 1932,
      "oÃ¹": 1933,
      "pt": 1934,
      "pal": 1935,
      "ppe": 1936,
      "pati": 1937,
      "pales": 1938,
      "plac": 1939,
      "passe": 1940,
      "pleur": 1941,
      "paie": 1942,
      "ry": 1943,
      "rants": 1944,
      "rÃ¨s": 1945,
      "sti": 1946,
      "sci": 1947,
      "stÃ©": 1948,
      "stu": 1949,
      "sitÃ©": 1950,
      "sins": 1951,
      "spe": 1952,
      "sage": 1953,
      "sav": 1954,
      "sence": 1955,
      "sta": 1956,
      "sants": 1957,
      "sto": 1958,
      "tor": 1959,
      "trÃ©": 1960,
      "tom": 1961,
      "tations": 1962,
      "taire": 1963,
      "tÃ¢": 1964,
      "uels": 1965,
      "van": 1966,
      "vin": 1967,
      "vons": 1968,
      "vend": 1969,
      "vacc": 1970,
      "vue": 1971,
      "vale": 1972,
      "wan": 1973,
      "xi": 1974,
      "xemb": 1975,
      "yeux": 1976,
      "ypte": 1977,
      "ze": 1978,
      "zi": 1979,
      "zo": 1980,
      "zÃ©": 1981,
      "zon": 1982,
      "Ã¼": 1983,
      "Ã©cou": 1984,
      "Ã©mis": 1985,
      "Ã©car": 1986,
      "Ã©gar": 1987,
      "Ã©limin": 1988,
      "enser": 1989,
      "enva": 1990,
      "ensemble": 1991,
      "onnement": 1992,
      "onnÃ©e": 1993,
      "espr": 1994,
      "espÃ©": 1995,
      "essa": 1996,
      "espoir": 1997,
      "erland": 1998,
      "tie": 1999,
      "tient": 2000,
      "tiser": 2001,
      "tiÃ¨res": 2002,
      "ane": 2003,
      "inÃ©": 2004,
      "ination": 2005,
      "inaires": 2006,
      "inion": 2007,
      "inuti": 2008,
      "isations": 2009,
      "relig": 2010,
      "recher": 2011,
      "reux": 2012,
      "remer": 2013,
      "reprodu": 2014,
      "reconnaiss": 2015,
      "ray": 2016,
      "radio": 2017,
      "itent": 2018,
      "itant": 2019,
      "itations": 2020,
      "itera": 2021,
      "quit": 2022,
      "quau": 2023,
      "quera": 2024,
      "quelles": 2025,
      "quels": 2026,
      "quanti": 2027,
      "quÃªte": 2028,
      "orde": 2029,
      "armÃ©": 2030,
      "argent": 2031,
      "artic": 2032,
      "liv": 2033,
      "liÃ©s": 2034,
      "lique": 2035,
      "limp": 2036,
      "dÃ©ce": 2037,
      "dÃ©ro": 2038,
      "dÃ©ta": 2039,
      "dÃ©bar": 2040,
      "dÃ©termin": 2041,
      "tem": 2042,
      "teux": 2043,
      "coni": 2044,
      "cont": 2045,
      "conci": 2046,
      "confi": 2047,
      "conver": 2048,
      "concr": 2049,
      "concur": 2050,
      "urent": 2051,
      "urgence": 2052,
      "allÃ©": 2053,
      "alban": 2054,
      "alogue": 2055,
      "rÃ©f": 2056,
      "rÃ©un": 2057,
      "rÃ©parti": 2058,
      "rÃ©vÃ©": 2059,
      "rÃ©uni": 2060,
      "rÃ©ussi": 2061,
      "chir": 2062,
      "chasse": 2063,
      "chois": 2064,
      "dique": 2065,
      "diques": 2066,
      "ditions": 2067,
      "divers": 2068,
      "diffici": 2069,
      "rid": 2070,
      "rices": 2071,
      "autri": 2072,
      "aitil": 2073,
      "aibli": 2074,
      "onsnous": 2075,
      "aci": 2076,
      "aces": 2077,
      "acul": 2078,
      "actions": 2079,
      "eld": 2080,
      "siÃ¨": 2081,
      "abo": 2082,
      "absolu": 2083,
      "Ã¨tes": 2084,
      "cib": 2085,
      "atri": 2086,
      "demp": 2087,
      "deux": 2088,
      "restri": 2089,
      "restruc": 2090,
      "respon": 2091,
      "tern": 2092,
      "terra": 2093,
      "terait": 2094,
      "agÃ©": 2095,
      "agno": 2096,
      "proje": 2097,
      "procha": 2098,
      "compr": 2099,
      "poque": 2100,
      "trent": 2101,
      "trons": 2102,
      "trÃªme": 2103,
      "fie": 2104,
      "fiques": 2105,
      "vice": 2106,
      "exac": 2107,
      "existe": 2108,
      "exprimer": 2109,
      "excell": 2110,
      "exÃ©cu": 2111,
      "apparti": 2112,
      "apprÃ©ci": 2113,
      "asser": 2114,
      "assu": 2115,
      "assemb": 2116,
      "aspec": 2117,
      "astroph": 2118,
      "amen": 2119,
      "amendement": 2120,
      "net": 2121,
      "logie": 2122,
      "ils": 2123,
      "illes": 2124,
      "veu": 2125,
      "veur": 2126,
      "veau": 2127,
      "veiller": 2128,
      "immo": 2129,
      "impÃ©": 2130,
      "impos": 2131,
      "imparti": 2132,
      "imposer": 2133,
      "opie": 2134,
      "opposer": 2135,
      "parer": 2136,
      "parten": 2137,
      "partage": 2138,
      "volution": 2139,
      "dues": 2140,
      "tend": 2141,
      "tention": 2142,
      "tenue": 2143,
      "insistance": 2144,
      "ffre": 2145,
      "porta": 2146,
      "sera": 2147,
      "suÃ©do": 2148,
      "irons": 2149,
      "irland": 2150,
      "nÃ©erland": 2151,
      "luxemb": 2152,
      "Ãªtes": 2153,
      "Ãªcher": 2154,
      "mora": 2155,
      "moder": 2156,
      "motiv": 2157,
      "prÃ©ven": 2158,
      "pertur": 2159,
      "pements": 2160,
      "formÃ©": 2161,
      "soulig": 2162,
      "endant": 2163,
      "gements": 2164,
      "maÃ®": 2165,
      "matiques": 2166,
      "dispos": 2167,
      "dispara": 2168,
      "dispon": 2169,
      "const": 2170,
      "consci": 2171,
      "consul": 2172,
      "consenti": 2173,
      "consÃ©qu": 2174,
      "sÃ©v": 2175,
      "sÃ©es": 2176,
      "venue": 2177,
      "accent": 2178,
      "accÃ¨s": 2179,
      "mani": 2180,
      "manif": 2181,
      "mÃ©th": 2182,
      "interprÃ©": 2183,
      "compter": 2184,
      "compag": 2185,
      "compati": 2186,
      "complÃ¨": 2187,
      "complÃ©ment": 2188,
      "obst": 2189,
      "enses": 2190,
      "gies": 2191,
      "gique": 2192,
      "liss": 2193,
      "liste": 2194,
      "lissement": 2195,
      "europe": 2196,
      "igne": 2197,
      "igno": 2198,
      "total": 2199,
      "toxi": 2200,
      "inement": 2201,
      "appelle": 2202,
      "appara": 2203,
      "nies": 2204,
      "niques": 2205,
      "sionnÃ©": 2206,
      "assin": 2207,
      "assistance": 2208,
      "atil": 2209,
      "atique": 2210,
      "mari": 2211,
      "courir": 2212,
      "dents": 2213,
      "finan": 2214,
      "nergie": 2215,
      "alisme": 2216,
      "destin": 2217,
      "dessus": 2218,
      "Ã©taient": 2219,
      "prÃ©ser": 2220,
      "prÃ©sente": 2221,
      "commis": 2222,
      "clÃ©s": 2223,
      "clam": 2224,
      "clari": 2225,
      "bureau": 2226,
      "intÃ©ri": 2227,
      "intÃ©res": 2228,
      "intÃ©gra": 2229,
      "intÃ©ress": 2230,
      "intÃ©rieur": 2231,
      "nentra": 2232,
      "autant": 2233,
      "autom": 2234,
      "autres": 2235,
      "daff": 2236,
      "monÃ©t": 2237,
      "stat": 2238,
      "prime": 2239,
      "phy": 2240,
      "phÃ©n": 2241,
      "liber": 2242,
      "portant": 2243,
      "portÃ©s": 2244,
      "portations": 2245,
      "gure": 2246,
      "tisation": 2247,
      "tissements": 2248,
      "issons": 2249,
      "issance": 2250,
      "crire": 2251,
      "partici": 2252,
      "tiquement": 2253,
      "ception": 2254,
      "formu": 2255,
      "dos": 2256,
      "docu": 2257,
      "mid": 2258,
      "mili": 2259,
      "renvoy": 2260,
      "Ã§on": 2261,
      "Ã§ue": 2262,
      "istan": 2263,
      "employ": 2264,
      "thÃ¨": 2265,
      "vÃ©ri": 2266,
      "connu": 2267,
      "crÃ©di": 2268,
      "organiser": 2269,
      "mener": 2270,
      "angle": 2271,
      "mettre": 2272,
      "cisme": 2273,
      "valent": 2274,
      "donner": 2275,
      "approb": 2276,
      "garde": 2277,
      "symb": 2278,
      "systÃ©": 2279,
      "troi": 2280,
      "trois": 2281,
      "doulou": 2282,
      "fÃ©min": 2283,
      "annÃ©e": 2284,
      "limiter": 2285,
      "sembler": 2286,
      "correspon": 2287,
      "susc": 2288,
      "positions": 2289,
      "Ãłdire": 2290,
      "consid": 2291,
      "accords": 2292,
      "amÃ©lioration": 2293,
      "favo": 2294,
      "pensez": 2295,
      "retour": 2296,
      "rappro": 2297,
      "contraign": 2298,
      "augmentation": 2299,
      "accepte": 2300,
      "accepter": 2301,
      "signi": 2302,
      "navig": 2303,
      "Ã©change": 2304,
      "suiv": 2305,
      "collÃ¨": 2306,
      "adopter": 2307,
      "banc": 2308,
      "Ã©galitÃ©": 2309,
      "souhaiter": 2310,
      "observa": 2311,
      "applique": 2312,
      "courage": 2313,
      "autoritÃ©": 2314,
      "occuper": 2315,
      "affaires": 2316,
      "plais": 2317,
      "espÃ¨re": 2318,
      "espagno": 2319,
      "estime": 2320,
      "refus": 2321,
      "attaquer": 2322,
      "examiner": 2323,
      "approuver": 2324,
      "logies": 2325,
      "logiques": 2326,
      "travaille": 2327,
      "candid": 2328,
      "hier": 2329,
      "preu": 2330,
      "Ã©tudi": 2331,
      "tivitÃ©": 2332,
      "lobje": 2333,
      "institution": 2334,
      "organisations": 2335,
      "amÃ©liorer": 2336,
      "veloppe": 2337,
      "asie": 2338,
      "asile": 2339,
      "ajoute": 2340,
      "ajouter": 2341,
      "faite": 2342,
      "Ã©quilib": 2343,
      "orientation": 2344,
      "circul": 2345,
      "respectu": 2346,
      "illus": 2347,
      "ophob": 2348,
      "exploitation": 2349,
      "catastroph": 2350,
      "milli": 2351,
      "nombre": 2352,
      "prati": 2353,
      "structures": 2354,
      "influ": 2355,
      "inflation": 2356,
      "venues": 2357,
      "avantage": 2358,
      "justice": 2359,
      "dÃ©mocrates": 2360,
      "camp": 2361,
      "pouvant": 2362,
      "Ã©lecto": 2363,
      "Ã©conomique": 2364,
      "information": 2365,
      "prison": 2366,
      "dÃ©veloppement": 2367,
      "confron": 2368,
      "demment": 2369,
      "lÃ©giti": 2370,
      "tenues": 2371,
      "adresser": 2372,
      "Ã©tablis": 2373,
      "intÃ©rÃªts": 2374,
      "bÃ©nÃ©fici": 2375,
      "gros": 2376,
      "plani": 2377,
      "Ã©valuation": 2378,
      "envisager": 2379,
      "prenant": 2380,
      "europÃ©ens": 2381,
      "appui": 2382,
      "assurance": 2383,
      "annonce": 2384,
      "harmoniser": 2385,
      "fournit": 2386,
      "Åĵuv": 2387,
      "crets": 2388,
      "franÃ§": 2389,
      "iÃ¨mement": 2390,
      "sÃ»re": 2391,
      "satisfais": 2392,
      "Ã©nergie": 2393,
      "Ã©largissement": 2394,
      "initiative": 2395,
      "rablement": 2396,
      "italie": 2397,
      "simpli": 2398,
      "terror": 2399,
      "ambiti": 2400,
      "instrument": 2401,
      "commencer": 2402,
      "lorsqu": 2403,
      "avec": 2404,
      "cinq": 2405,
      "citoyens": 2406,
      "dynam": 2407,
      "faibles": 2408,
      "ghan": 2409,
      "group": 2410,
      "hypo": 2411,
      "idÃ©o": 2412,
      "sterdam": 2413,
      "vÃ©rit": 2414,
      "industri": 2415,
      "pronon": 2416,
      "quisition": 2417,
      "temps": 2418,
      "condition": 2419,
      "diminu": 2420,
      "abouti": 2421,
      "proportionn": 2422,
      "instaurer": 2423,
      "suggÃ©": 2424,
      "accroÃ®tre": 2425,
      "atifs": 2426,
      "budgÃ©": 2427,
      "particuli": 2428,
      "signal": 2429,
      "mÃªmes": 2430,
      "Ã«l": 2431,
      "convainc": 2432,
      "rÃ©fugi": 2433,
      "pertinent": 2434,
      "discrimination": 2435,
      "cruci": 2436,
      "caractÃ©": 2437,
      "afghan": 2438,
      "mauv": 2439,
      "palestini": 2440,
      "stock": 2441,
      "religie": 2442,
      "appartient": 2443,
      "assemblÃ©e": 2444,
      "luxembour": 2445,
      "manifes": 2446,
      "mÃ©tho": 2447,
      "phÃ©nom": 2448,
      "douloure": 2449,
      "ah": 2450,
      "ain": 2451,
      "ate": 2452,
      "aur": 2453,
      "ase": 2454,
      "avo": 2455,
      "aÃ®": 2456,
      "aines": 2457,
      "avenir": 2458,
      "aÃ©ri": 2459,
      "afrique": 2460,
      "bb": 2461,
      "bom": 2462,
      "bai": 2463,
      "bag": 2464,
      "bus": 2465,
      "blo": 2466,
      "bais": 2467,
      "blan": 2468,
      "bos": 2469,
      "brÃ¨": 2470,
      "cd": 2471,
      "cle": 2472,
      "cte": 2473,
      "cant": 2474,
      "cend": 2475,
      "cations": 2476,
      "cence": 2477,
      "clan": 2478,
      "cture": 2479,
      "ctÃ©s": 2480,
      "cÃ¨s": 2481,
      "cret": 2482,
      "caus": 2483,
      "dal": 2484,
      "dau": 2485,
      "del": 2486,
      "dres": 2487,
      "dav": 2488,
      "dÃ»": 2489,
      "dits": 2490,
      "dobserva": 2491,
      "eau": 2492,
      "etil": 2493,
      "ette": 2494,
      "fe": 2495,
      "fou": 2496,
      "far": 2497,
      "fal": 2498,
      "frÃ©": 2499,
      "fas": 2500,
      "flo": 2501,
      "fro": 2502,
      "font": 2503,
      "faire": 2504,
      "fos": 2505,
      "fru": 2506,
      "fem": 2507,
      "faud": 2508,
      "gs": 2509,
      "gou": 2510,
      "gal": 2511,
      "gation": 2512,
      "gom": 2513,
      "gel": 2514,
      "gil": 2515,
      "genti": 2516,
      "gali": 2517,
      "gypte": 2518,
      "he": 2519,
      "hÃ©": 2520,
      "hen": 2521,
      "han": 2522,
      "hit": 2523,
      "hist": 2524,
      "hos": 2525,
      "hol": 2526,
      "habil": 2527,
      "ik": 2528,
      "ix": 2529,
      "ien": 2530,
      "ile": 2531,
      "ili": 2532,
      "ider": 2533,
      "iers": 2534,
      "ivent": 2535,
      "idÃ©e": 2536,
      "jai": 2537,
      "jac": 2538,
      "jad": 2539,
      "jeux": 2540,
      "ke": 2541,
      "kh": 2542,
      "ken": 2543,
      "kin": 2544,
      "kis": 2545,
      "lÃ©s": 2546,
      "lai": 2547,
      "lap": 2548,
      "llement": 2549,
      "lera": 2550,
      "llar": 2551,
      "linst": 2552,
      "lits": 2553,
      "lomÃ©": 2554,
      "mant": 2555,
      "mÃ¨": 2556,
      "mus": 2557,
      "mins": 2558,
      "mait": 2559,
      "mad": 2560,
      "mun": 2561,
      "mage": 2562,
      "mÃ¨ne": 2563,
      "nd": 2564,
      "ny": 2565,
      "nan": 2566,
      "nar": 2567,
      "nai": 2568,
      "nations": 2569,
      "nob": 2570,
      "nisation": 2571,
      "nisme": 2572,
      "nari": 2573,
      "nexis": 2574,
      "oo": 2575,
      "ote": 2576,
      "oles": 2577,
      "otes": 2578,
      "oir": 2579,
      "olement": 2580,
      "olig": 2581,
      "otan": 2582,
      "ograph": 2583,
      "pn": 2584,
      "pti": 2585,
      "pÃ©s": 2586,
      "pter": 2587,
      "ples": 2588,
      "plo": 2589,
      "pun": 2590,
      "pue": 2591,
      "pire": 2592,
      "plon": 2593,
      "plÃ©ment": 2594,
      "rus": 2595,
      "ritÃ©": 2596,
      "rend": 2597,
      "rÃ´": 2598,
      "roph": 2599,
      "sc": 2600,
      "sin": 2601,
      "sit": 2602,
      "ste": 2603,
      "sour": 2604,
      "sla": 2605,
      "sad": 2606,
      "sens": 2607,
      "sans": 2608,
      "site": 2609,
      "scÃ©": 2610,
      "sinc": 2611,
      "seng": 2612,
      "spec": 2613,
      "situ": 2614,
      "ty": 2615,
      "tch": 2616,
      "tai": 2617,
      "tter": 2618,
      "tus": 2619,
      "tas": 2620,
      "tob": 2621,
      "tants": 2622,
      "tables": 2623,
      "tÃªte": 2624,
      "tÃ´t": 2625,
      "ttig": 2626,
      "uv": 2627,
      "uvre": 2628,
      "uffis": 2629,
      "ukra": 2630,
      "vd": 2631,
      "vau": 2632,
      "vag": 2633,
      "vul": 2634,
      "vÃª": 2635,
      "vite": 2636,
      "vali": 2637,
      "vatoire": 2638,
      "wat": 2639,
      "xiste": 2640,
      "xÃ©n": 2641,
      "ye": 2642,
      "yle": 2643,
      "yons": 2644,
      "ymes": 2645,
      "yenne": 2646,
      "zim": 2647,
      "zvous": 2648,
      "Ã¡": 2649,
      "Å¡": 2650,
      "Ã©en": 2651,
      "Ã©li": 2652,
      "Ã©ter": 2653,
      "Ã©man": 2654,
      "Ã©ta": 2655,
      "Ã©pi": 2656,
      "Ã©cr": 2657,
      "Ã©vÃ©": 2658,
      "Ã©lab": 2659,
      "Ã©rÃ©s": 2660,
      "Ã©vit": 2661,
      "Ã©viter": 2662,
      "Ã©clair": 2663,
      "Ã©poque": 2664,
      "Ã©pouvant": 2665,
      "enri": 2666,
      "ensu": 2667,
      "enfer": 2668,
      "enreg": 2669,
      "encontre": 2670,
      "encie": 2671,
      "enregis": 2672,
      "enveloppe": 2673,
      "ond": 2674,
      "ong": 2675,
      "onom": 2676,
      "ontelles": 2677,
      "esse": 2678,
      "espa": 2679,
      "estil": 2680,
      "escal": 2681,
      "ert": 2682,
      "erons": 2683,
      "erres": 2684,
      "erÃ§": 2685,
      "erba": 2686,
      "tile": 2687,
      "tidi": 2688,
      "tine": 2689,
      "tiÃ¨re": 2690,
      "entre": 2691,
      "entend": 2692,
      "entrer": 2693,
      "entrÃ©e": 2694,
      "entendre": 2695,
      "entendu": 2696,
      "enthou": 2697,
      "antis": 2698,
      "ankara": 2699,
      "ina": 2700,
      "inci": 2701,
      "incom": 2702,
      "intr": 2703,
      "infi": 2704,
      "inap": 2705,
      "invo": 2706,
      "ininter": 2707,
      "incu": 2708,
      "indon": 2709,
      "infÃ©": 2710,
      "inions": 2711,
      "invit": 2712,
      "inhÃ©r": 2713,
      "incontes": 2714,
      "inadmis": 2715,
      "inquiÃ©tu": 2716,
      "inien": 2717,
      "isra": 2718,
      "istÃ©": 2719,
      "isie": 2720,
      "istiques": 2721,
      "islam": 2722,
      "istence": 2723,
      "reb": 2724,
      "rem": 2725,
      "remis": 2726,
      "reÃ§": 2727,
      "reira": 2728,
      "reconnais": 2729,
      "reprÃ©sente": 2730,
      "revÃª": 2731,
      "rach": 2732,
      "raire": 2733,
      "raux": 2734,
      "ratil": 2735,
      "rabilitÃ©": 2736,
      "raires": 2737,
      "rayer": 2738,
      "itan": 2739,
      "itage": 2740,
      "lead": 2741,
      "leurs": 2742,
      "lemp": 2743,
      "lemb": 2744,
      "lection": 2745,
      "prise": 2746,
      "prises": 2747,
      "quen": 2748,
      "quin": 2749,
      "quar": 2750,
      "quons": 2751,
      "quie": 2752,
      "quait": 2753,
      "quun": 2754,
      "quelle": 2755,
      "quable": 2756,
      "quÃ©es": 2757,
      "quasi": 2758,
      "outre": 2759,
      "orie": 2760,
      "arz": 2761,
      "arti": 2762,
      "arch": 2763,
      "arom": 2764,
      "arro": 2765,
      "arma": 2766,
      "arder": 2767,
      "aritÃ©s": 2768,
      "ariste": 2769,
      "ards": 2770,
      "lie": 2771,
      "lion": 2772,
      "lira": 2773,
      "liation": 2774,
      "liquer": 2775,
      "dÃ©o": 2776,
      "dÃ©ment": 2777,
      "dÃ©sÃ©": 2778,
      "dÃ©man": 2779,
      "dÃ©cou": 2780,
      "dÃ©pu": 2781,
      "dÃ©fic": 2782,
      "dÃ©lic": 2783,
      "dÃ©gra": 2784,
      "dÃ©mis": 2785,
      "dÃ©cent": 2786,
      "dÃ©lÃ©g": 2787,
      "dÃ©tat": 2788,
      "dÃ©loc": 2789,
      "dÃ©tour": 2790,
      "dÃ©mont": 2791,
      "dÃ©cla": 2792,
      "dÃ©bou": 2793,
      "dÃ©vas": 2794,
      "dÃ©cen": 2795,
      "tection": 2796,
      "teuse": 2797,
      "conse": 2798,
      "convi": 2799,
      "convo": 2800,
      "confon": 2801,
      "contro": 2802,
      "convers": 2803,
      "confÃ©r": 2804,
      "conduc": 2805,
      "urant": 2806,
      "urÃ©e": 2807,
      "urera": 2808,
      "urgent": 2809,
      "urani": 2810,
      "alp": 2811,
      "alar": 2812,
      "altern": 2813,
      "rÃ©p": 2814,
      "rÃ©ch": 2815,
      "rÃ©se": 2816,
      "rÃ©comp": 2817,
      "rÃ©gu": 2818,
      "rÃ©cep": 2819,
      "rÃ©publi": 2820,
      "rÃ©cla": 2821,
      "rÃ©tab": 2822,
      "rÃ©flex": 2823,
      "rÃ©pan": 2824,
      "rÃ©tiens": 2825,
      "rÃ©volution": 2826,
      "chÃ©": 2827,
      "chent": 2828,
      "chant": 2829,
      "chÃ©s": 2830,
      "chap": 2831,
      "cham": 2832,
      "chance": 2833,
      "chelle": 2834,
      "chera": 2835,
      "chÃ´": 2836,
      "chron": 2837,
      "chino": 2838,
      "chrÃ©tiens": 2839,
      "omc": 2840,
      "omph": 2841,
      "dig": 2842,
      "dir": 2843,
      "dix": 2844,
      "dition": 2845,
      "dirais": 2846,
      "diffic": 2847,
      "ril": 2848,
      "rien": 2849,
      "rier": 2850,
      "ridi": 2851,
      "rique": 2852,
      "riÃ¨res": 2853,
      "riÃ¨me": 2854,
      "cement": 2855,
      "cede": 2856,
      "celu": 2857,
      "celle": 2858,
      "ceux": 2859,
      "celles": 2860,
      "autÃ©": 2861,
      "aucu": 2862,
      "auche": 2863,
      "auration": 2864,
      "aurait": 2865,
      "auraient": 2866,
      "aidant": 2867,
      "sel": 2868,
      "sein": 2869,
      "secon": 2870,
      "seul": 2871,
      "seurs": 2872,
      "sema": 2873,
      "semp": 2874,
      "secrÃ©": 2875,
      "seignement": 2876,
      "acle": 2877,
      "acts": 2878,
      "acteur": 2879,
      "activement": 2880,
      "sil": 2881,
      "sim": 2882,
      "six": 2883,
      "sias": 2884,
      "sique": 2885,
      "sives": 2886,
      "sibil": 2887,
      "siez": 2888,
      "simul": 2889,
      "sification": 2890,
      "sivement": 2891,
      "sieurs": 2892,
      "absor": 2893,
      "abordÃ©": 2894,
      "aborde": 2895,
      "Ã¨le": 2896,
      "Ã¨les": 2897,
      "Ã¨ve": 2898,
      "Ã¨ge": 2899,
      "Ã¨lement": 2900,
      "Ã¨tre": 2901,
      "Ã¨tent": 2902,
      "cice": 2903,
      "cibles": 2904,
      "ates": 2905,
      "ater": 2906,
      "attirer": 2907,
      "deurs": 2908,
      "devoir": 2909,
      "demain": 2910,
      "deviend": 2911,
      "rester": 2912,
      "respe": 2913,
      "resta": 2914,
      "restitu": 2915,
      "terri": 2916,
      "tÃ©n": 2917,
      "tÃ©mo": 2918,
      "agit": 2919,
      "agÃ©e": 2920,
      "agir": 2921,
      "agence": 2922,
      "agers": 2923,
      "agnes": 2924,
      "agissant": 2925,
      "usage": 2926,
      "proven": 2927,
      "proche": 2928,
      "propos": 2929,
      "provis": 2930,
      "prolon": 2931,
      "proposer": 2932,
      "propose": 2933,
      "prohi": 2934,
      "proclam": 2935,
      "protection": 2936,
      "compor": 2937,
      "comprom": 2938,
      "comporte": 2939,
      "comprend": 2940,
      "polon": 2941,
      "points": 2942,
      "tron": 2943,
      "tran": 2944,
      "trom": 2945,
      "trouver": 2946,
      "fil": 2947,
      "fili": 2948,
      "fiable": 2949,
      "fille": 2950,
      "fiables": 2951,
      "vic": 2952,
      "vire": 2953,
      "victi": 2954,
      "ville": 2955,
      "vivre": 2956,
      "exi": 2957,
      "exper": 2958,
      "exclus": 2959,
      "extrÃ©": 2960,
      "extrÃªme": 2961,
      "mez": 2962,
      "meurs": 2963,
      "assi": 2964,
      "amuser": 2965,
      "ampleur": 2966,
      "amsterdam": 2967,
      "quement": 2968,
      "log": 2969,
      "lore": 2970,
      "loie": 2971,
      "lotage": 2972,
      "tuelle": 2973,
      "turation": 2974,
      "veill": 2975,
      "vembre": 2976,
      "imag": 2977,
      "imil": 2978,
      "image": 2979,
      "impu": 2980,
      "impose": 2981,
      "imÃªme": 2982,
      "impression": 2983,
      "immigration": 2984,
      "immÃ©dia": 2985,
      "importa": 2986,
      "opti": 2987,
      "option": 2988,
      "opor": 2989,
      "oppos": 2990,
      "oppose": 2991,
      "opÃ©rer": 2992,
      "opinion": 2993,
      "parle": 2994,
      "parler": 2995,
      "partis": 2996,
      "parcours": 2997,
      "partout": 2998,
      "uler": 2999,
      "ulent": 3000,
      "ultÃ©": 3001,
      "ultra": 3002,
      "ultes": 3003,
      "ulaire": 3004,
      "ulaires": 3005,
      "itÃ©es": 3006,
      "voie": 3007,
      "voire": 3008,
      "voient": 3009,
      "volon": 3010,
      "vols": 3011,
      "dure": 3012,
      "dump": 3013,
      "dutilis": 3014,
      "tendre": 3015,
      "tenez": 3016,
      "tensitÃ©": 3017,
      "insÃ¨": 3018,
      "inspe": 3019,
      "inscr": 3020,
      "insist": 3021,
      "insister": 3022,
      "insuffis": 3023,
      "ours": 3024,
      "ffÃ©r": 3025,
      "ffrent": 3026,
      "porteur": 3027,
      "portera": 3028,
      "serons": 3029,
      "servi": 3030,
      "suc": 3031,
      "sure": 3032,
      "suff": 3033,
      "suje": 3034,
      "suasi": 3035,
      "laff": 3036,
      "ladop": 3037,
      "iez": 3038,
      "tration": 3039,
      "tragÃ©": 3040,
      "trafic": 3041,
      "traÃ®": 3042,
      "traitÃ©s": 3043,
      "travers": 3044,
      "verser": 3045,
      "verts": 3046,
      "veront": 3047,
      "versÃ©": 3048,
      "versement": 3049,
      "luer": 3050,
      "lueur": 3051,
      "codi": 3052,
      "code": 3053,
      "colle": 3054,
      "colon": 3055,
      "cool": 3056,
      "coÃ¯": 3057,
      "coton": 3058,
      "coopÃ©ra": 3059,
      "cofinance": 3060,
      "adress": 3061,
      "adhÃ©r": 3062,
      "moi": 3063,
      "mot": 3064,
      "mois": 3065,
      "moment": 3066,
      "moins": 3067,
      "modes": 3068,
      "mobil": 3069,
      "prÃ©f": 3070,
      "prÃ©hen": 3071,
      "permis": 3072,
      "perspe": 3073,
      "peur": 3074,
      "rovi": 3075,
      "roso": 3076,
      "aisons": 3077,
      "pÃ©rÃ©e": 3078,
      "unes": 3079,
      "unitÃ©": 3080,
      "union": 3081,
      "unani": 3082,
      "unanim": 3083,
      "foresti": 3084,
      "souver": 3085,
      "soustra": 3086,
      "enda": 3087,
      "endra": 3088,
      "geons": 3089,
      "mach": 3090,
      "mains": 3091,
      "mateur": 3092,
      "maÃ®tre": 3093,
      "disant": 3094,
      "disposer": 3095,
      "discus": 3096,
      "consens": 3097,
      "consist": 3098,
      "construc": 3099,
      "consoli": 3100,
      "cest": 3101,
      "minu": 3102,
      "minor": 3103,
      "minist": 3104,
      "soient": 3105,
      "sÃ©par": 3106,
      "sÃ©pa": 3107,
      "gÃ©ri": 3108,
      "gÃ©nit": 3109,
      "gÃ©ograph": 3110,
      "venons": 3111,
      "venez": 3112,
      "accu": 3113,
      "accus": 3114,
      "accises": 3115,
      "accuser": 3116,
      "accÃ©lÃ©": 3117,
      "accordÃ©": 3118,
      "mandÃ©": 3119,
      "mange": 3120,
      "mÃ©ment": 3121,
      "mÃ©trie": 3122,
      "mÃ©diterranÃ©": 3123,
      "interviend": 3124,
      "interinstitutionn": 3125,
      "intergouvernement": 3126,
      "airement": 3127,
      "avais": 3128,
      "avÃ¨re": 3129,
      "avaient": 3130,
      "ordonner": 3131,
      "complÃ©": 3132,
      "compens": 3133,
      "complex": 3134,
      "compara": 3135,
      "comptez": 3136,
      "obtenir": 3137,
      "obarom": 3138,
      "tative": 3139,
      "trib": 3140,
      "trices": 3141,
      "triomph": 3142,
      "gide": 3143,
      "giques": 3144,
      "gibles": 3145,
      "lancer": 3146,
      "euros": 3147,
      "euromÃ©": 3148,
      "Ã©ropor": 3149,
      "cules": 3150,
      "ignent": 3151,
      "ignor": 3152,
      "noci": 3153,
      "notation": 3154,
      "tota": 3155,
      "niÃ¨re": 3156,
      "chef": 3157,
      "cheurs": 3158,
      "entis": 3159,
      "entiÃ¨re": 3160,
      "entiels": 3161,
      "assent": 3162,
      "assau": 3163,
      "assister": 3164,
      "assassin": 3165,
      "marqu": 3166,
      "marÃ©e": 3167,
      "mariti": 3168,
      "vise": 3169,
      "visions": 3170,
      "couv": 3171,
      "couvre": 3172,
      "dentes": 3173,
      "finland": 3174,
      "alisÃ©": 3175,
      "alisÃ©s": 3176,
      "despoir": 3177,
      "prÃ©sidenti": 3178,
      "commiss": 3179,
      "derons": 3180,
      "vestissement": 3181,
      "dication": 3182,
      "dicap": 3183,
      "dictions": 3184,
      "class": 3185,
      "clÃ´": 3186,
      "paque": 3187,
      "pure": 3188,
      "ctivitÃ©": 3189,
      "fond": 3190,
      "fonds": 3191,
      "autonom": 3192,
      "davi": 3193,
      "dafrica": 3194,
      "monte": 3195,
      "montrer": 3196,
      "monopo": 3197,
      "stan": 3198,
      "stal": 3199,
      "stad": 3200,
      "priv": 3201,
      "privi": 3202,
      "privÃ©": 3203,
      "phÃ©ri": 3204,
      "rances": 3205,
      "ouvel": 3206,
      "ouvrir": 3207,
      "liban": 3208,
      "libÃ©rÃ©": 3209,
      "licable": 3210,
      "transmis": 3211,
      "portance": 3212,
      "biomÃ©": 3213,
      "guin": 3214,
      "guÃ©e": 3215,
      "guider": 3216,
      "Ã®ne": 3217,
      "tistiques": 3218,
      "issait": 3219,
      "critique": 3220,
      "crivent": 3221,
      "cription": 3222,
      "gradu": 3223,
      "mistes": 3224,
      "pices": 3225,
      "piration": 3226,
      "pirations": 3227,
      "titude": 3228,
      "dÃ©plor": 3229,
      "occul": 3230,
      "occident": 3231,
      "octroi": 3232,
      "ling": 3233,
      "lingu": 3234,
      "tiquetage": 3235,
      "ligence": 3236,
      "cept": 3237,
      "formations": 3238,
      "doh": 3239,
      "dollar": 3240,
      "elson": 3241,
      "culteurs": 3242,
      "mix": 3243,
      "rencon": 3244,
      "renation": 3245,
      "renouvel": 3246,
      "Ã§onner": 3247,
      "Ã©rait": 3248,
      "Ã©radi": 3249,
      "Ã©rations": 3250,
      "empi": 3251,
      "emple": 3252,
      "emplois": 3253,
      "empÃªcher": 3254,
      "vÃ©hi": 3255,
      "querait": 3256,
      "connex": 3257,
      "connue": 3258,
      "cents": 3259,
      "carbur": 3260,
      "crÃ©e": 3261,
      "juste": 3262,
      "organe": 3263,
      "organes": 3264,
      "aliment": 3265,
      "bilisation": 3266,
      "huit": 3267,
      "humili": 3268,
      "labat": 3269,
      "mense": 3270,
      "ronter": 3271,
      "lÃ©gÃ¨re": 3272,
      "fermÃ©": 3273,
      "ferrovi": 3274,
      "lÃ¨ve": 3275,
      "valor": 3276,
      "anticip": 3277,
      "incitants": 3278,
      "incroy": 3279,
      "lexcell": 3280,
      "sociaux": 3281,
      "donne": 3282,
      "surveill": 3283,
      "turer": 3284,
      "indirec": 3285,
      "indiffÃ©r": 3286,
      "approvision": 3287,
      "ffice": 3288,
      "garder": 3289,
      "garantis": 3290,
      "symp": 3291,
      "syst": 3292,
      "engage": 3293,
      "englob": 3294,
      "expan": 3295,
      "expul": 3296,
      "ding": 3297,
      "dintrodu": 3298,
      "dinflu": 3299,
      "long": 3300,
      "pourrions": 3301,
      "tination": 3302,
      "univers": 3303,
      "dences": 3304,
      "denregis": 3305,
      "doute": 3306,
      "douane": 3307,
      "frap": 3308,
      "fragil": 3309,
      "toute": 3310,
      "presse": 3311,
      "limit": 3312,
      "limitÃ©": 3313,
      "dÃ©fend": 3314,
      "dÃ©favor": 3315,
      "dÃ©fense": 3316,
      "implication": 3317,
      "impÃ´t": 3318,
      "impact": 3319,
      "corpo": 3320,
      "correc": 3321,
      "corps": 3322,
      "suspec": 3323,
      "suscepti": 3324,
      "reprise": 3325,
      "paral": 3326,
      "paravant": 3327,
      "paragraph": 3328,
      "jours": 3329,
      "journement": 3330,
      "multination": 3331,
      "ruth": 3332,
      "Ã»t": 3333,
      "install": 3334,
      "installe": 3335,
      "installer": 3336,
      "euxmÃªmes": 3337,
      "amÃ©liora": 3338,
      "faÃ§onner": 3339,
      "fusion": 3340,
      "honor": 3341,
      "hongro": 3342,
      "jose": 3343,
      "joindre": 3344,
      "pense": 3345,
      "penser": 3346,
      "pension": 3347,
      "tionnaires": 3348,
      "tionnelles": 3349,
      "contraire": 3350,
      "acceptable": 3351,
      "gueur": 3352,
      "nationale": 3353,
      "tataires": 3354,
      "Ã©chelle": 3355,
      "Ã©chang": 3356,
      "ressor": 3357,
      "ressortis": 3358,
      "voyez": 3359,
      "colom": 3360,
      "collab": 3361,
      "collabor": 3362,
      "adoption": 3363,
      "adoptÃ©": 3364,
      "maind": 3365,
      "utilise": 3366,
      "utiliser": 3367,
      "utilisateurs": 3368,
      "bande": 3369,
      "barre": 3370,
      "club": 3371,
      "Ã¢ge": 3372,
      "promou": 3373,
      "promouv": 3374,
      "allou": 3375,
      "aussi": 3376,
      "austra": 3377,
      "opÃ©ration": 3378,
      "observe": 3379,
      "observer": 3380,
      "observation": 3381,
      "autoris": 3382,
      "considÃ©rer": 3383,
      "considÃ©rÃ©e": 3384,
      "affaire": 3385,
      "affaibli": 3386,
      "bet": 3387,
      "effet": 3388,
      "effective": 3389,
      "itiative": 3390,
      "mala": 3391,
      "plate": 3392,
      "sond": 3393,
      "schmid": 3394,
      "espÃ¨": 3395,
      "espagne": 3396,
      "reflÃ©": 3397,
      "reflÃ¨": 3398,
      "attaque": 3399,
      "devrions": 3400,
      "examen": 3401,
      "apprendre": 3402,
      "supporter": 3403,
      "supplÃ©ment": 3404,
      "pÃ©rio": 3405,
      "pÃ©riphÃ©ri": 3406,
      "constitution": 3407,
      "intÃ©grer": 3408,
      "spÃ©cific": 3409,
      "spÃ©cifique": 3410,
      "base": 3411,
      "dommag": 3412,
      "irak": 3413,
      "lhy": 3414,
      "lhom": 3415,
      "lorig": 3416,
      "oraire": 3417,
      "orateurs": 3418,
      "offer": 3419,
      "offre": 3420,
      "offri": 3421,
      "offrir": 3422,
      "Ã©tude": 3423,
      "estÃłdire": 3424,
      "concert": 3425,
      "directive": 3426,
      "profiter": 3427,
      "institut": 3428,
      "dÃ©pendance": 3429,
      "organismes": 3430,
      "identitÃ©": 3431,
      "amÃ©liorent": 3432,
      "hÃ©ritage": 3433,
      "matÃ©ri": 3434,
      "matrices": 3435,
      "tourisme": 3436,
      "Ã¯dj": 3437,
      "Ã©quipe": 3438,
      "Ã©quilibre": 3439,
      "endements": 3440,
      "ancien": 3441,
      "raisonn": 3442,
      "itoires": 3443,
      "orienter": 3444,
      "ariat": 3445,
      "dÃ©finition": 3446,
      "charge": 3447,
      "sexuels": 3448,
      "circons": 3449,
      "demander": 3450,
      "importance": 3451,
      "ductions": 3452,
      "permettr": 3453,
      "ministÃ©ri": 3454,
      "exploiter": 3455,
      "bonne": 3456,
      "breve": 3457,
      "catÃ©g": 3458,
      "grand": 3459,
      "grande": 3460,
      "habitants": 3461,
      "pouvoir": 3462,
      "pouvez": 3463,
      "Ã©volution": 3464,
      "entrepren": 3465,
      "entreprise": 3466,
      "entreprises": 3467,
      "infe": 3468,
      "rassemb": 3469,
      "leuro": 3470,
      "accompli": 3471,
      "compÃ©tent": 3472,
      "exerce": 3473,
      "exercer": 3474,
      "exercice": 3475,
      "associer": 3476,
      "peut": 3477,
      "mÃ©diaire": 3478,
      "dÃ©mocratique": 3479,
      "curitÃ©": 3480,
      "currence": 3481,
      "droit": 3482,
      "droite": 3483,
      "gaz": 3484,
      "migrants": 3485,
      "numÃ©": 3486,
      "nuclÃ©": 3487,
      "pouvait": 3488,
      "vrai": 3489,
      "Ã©conomie": 3490,
      "Ã©conomiques": 3491,
      "encourager": 3492,
      "encouragent": 3493,
      "investis": 3494,
      "investissement": 3495,
      "informations": 3496,
      "princi": 3497,
      "quoi": 3498,
      "confront": 3499,
      "rÃ©gions": 3500,
      "actuel": 3501,
      "demimil": 3502,
      "tÃ©lÃ©communi": 3503,
      "problÃ©": 3504,
      "problÃ¨": 3505,
      "viendrait": 3506,
      "exemple": 3507,
      "lÃ©gifÃ©r": 3508,
      "prÃ©occuper": 3509,
      "construction": 3510,
      "objectif": 3511,
      "objectifs": 3512,
      "obligations": 3513,
      "Ã©tablir": 3514,
      "prÃ©sident": 3515,
      "prÃ©sidente": 3516,
      "culturelle": 3517,
      "largissement": 3518,
      "bÃ©nÃ©ficier": 3519,
      "calcul": 3520,
      "plus": 3521,
      "sanction": 3522,
      "sangu": 3523,
      "sanitaires": 3524,
      "Ã©trange": 3525,
      "Ã©valuer": 3526,
      "innov": 3527,
      "innovation": 3528,
      "remplac": 3529,
      "radication": 3530,
      "dÃ©cidÃ©": 3531,
      "continuer": 3532,
      "alliÃ©s": 3533,
      "alliance": 3534,
      "autosuffis": 3535,
      "civilis": 3536,
      "tÃ©rieures": 3537,
      "ussie": 3538,
      "combus": 3539,
      "trouvons": 3540,
      "europÃ©enne": 3541,
      "communiquer": 3542,
      "libÃ©rale": 3543,
      "libÃ©ralis": 3544,
      "amÃ©rique": 3545,
      "annoncer": 3546,
      "examinÃ©e": 3547,
      "travailler": 3548,
      "connaissance": 3549,
      "fournisse": 3550,
      "adÃ©qu": 3551,
      "adÃ©quat": 3552,
      "brie": 3553,
      "efforts": 3554,
      "hoolig": 3555,
      "heureusement": 3556,
      "sÃ»r": 3557,
      "Ã©quit": 3558,
      "Ã©cologique": 3559,
      "Ã©nergÃ©": 3560,
      "Ã©largir": 3561,
      "animaux": 3562,
      "intention": 3563,
      "revendi": 3564,
      "limination": 3565,
      "chose": 3566,
      "absent": 3567,
      "absence": 3568,
      "agriculture": 3569,
      "exiger": 3570,
      "exigences": 3571,
      "tolÃ©rance": 3572,
      "commencÃ©": 3573,
      "humanitÃ©": 3574,
      "appropriÃ©": 3575,
      "effectuer": 3576,
      "rÃ¨glement": 3577,
      "entraÃ®ner": 3578,
      "ayant": 3579,
      "beso": 3580,
      "efficacitÃ©": 3581,
      "efficace": 3582,
      "famili": 3583,
      "homme": 3584,
      "juridique": 3585,
      "passer": 3586,
      "pÃªcher": 3587,
      "slov": 3588,
      "slova": 3589,
      "vÃ©ritÃ©": 3590,
      "Ã©lÃ©ments": 3591,
      "Ã©loge": 3592,
      "infraction": 3593,
      "industrie": 3594,
      "religi": 3595,
      "quatriÃ¨me": 3596,
      "oublier": 3597,
      "texte": 3598,
      "conditions": 3599,
      "contents": 3600,
      "diminuer": 3601,
      "responsabil": 3602,
      "proportion": 3603,
      "vigil": 3604,
      "existante": 3605,
      "adapter": 3606,
      "petite": 3607,
      "constater": 3608,
      "marchan": 3609,
      "budge": 3610,
      "inclusion": 3611,
      "rÃ©sultat": 3612,
      "garantie": 3613,
      "technologies": 3614,
      "affirmÃ©": 3615,
      "affirmation": 3616,
      "aujourdhui": 3617,
      "britan": 3618,
      "frontiÃ¨res": 3619,
      "grim": 3620,
      "hors": 3621,
      "nouvelle": 3622,
      "pied": 3623,
      "Ã©ventu": 3624,
      "Ã©ducation": 3625,
      "enfant": 3626,
      "analyse": 3627,
      "indubit": 3628,
      "recommand": 3629,
      "raitil": 3630,
      "ralisme": 3631,
      "prouvent": 3632,
      "qualifiÃ©s": 3633,
      "dÃ©montrer": 3634,
      "rÃ©pÃ©ter": 3635,
      "rÃ©fÃ©rendu": 3636,
      "chypri": 3637,
      "activitÃ©s": 3638,
      "propriÃ©t": 3639,
      "trouve": 3640,
      "expÃ©rience": 3641,
      "extÃ©rieures": 3642,
      "opportun": 3643,
      "opportunitÃ©": 3644,
      "voisin": 3645,
      "coordonner": 3646,
      "perpÃ©t": 3647,
      "accueillir": 3648,
      "mÃ©dica": 3649,
      "notamment": 3650,
      "occasion": 3651,
      "cepticisme": 3652,
      "incapacitÃ©": 3653,
      "judici": 3654,
      "honorables": 3655,
      "honorable": 3656,
      "Ã©norme": 3657,
      "pacifique": 3658,
      "volontaire": 3659,
      "programme": 3660,
      "africaine": 3661,
      "feuille": 3662,
      "gasp": 3663,
      "histoire": 3664,
      "olaf": 3665,
      "stimul": 3666,
      "scienti": 3667,
      "sinscrit": 3668,
      "vaccin": 3669,
      "Ã©gard": 3670,
      "envah": 3671,
      "esprit": 3672,
      "essay": 3673,
      "remercie": 3674,
      "article": 3675,
      "dÃ©cev": 3676,
      "dÃ©barras": 3677,
      "tempo": 3678,
      "conciliation": 3679,
      "confir": 3680,
      "convergence": 3681,
      "allÃ©gement": 3682,
      "rÃ©flÃ©": 3683,
      "diversitÃ©": 3684,
      "autrichi": 3685,
      "aspects": 3686,
      "veuille": 3687,
      "impÃ©ra": 3688,
      "perturb": 3689,
      "maÃ®tres": 3690,
      "accentuer": 3691,
      "toxicitÃ©": 3692,
      "bureaucra": 3693,
      "automne": 3694,
      "statu": 3695,
      "dossi": 3696,
      "document": 3697,
      "approbation": 3698,
      "systÃ©matique": 3699,
      "considÃ¨re": 3700,
      "signific": 3701,
      "plaisir": 3702,
      "candidat": 3703,
      "preuves": 3704,
      "ophobie": 3705,
      "influen": 3706,
      "inflationn": 3707,
      "Åĵuvrer": 3708,
      "hypocr": 3709,
      "caractÃ©ris": 3710,
      "luxembourge": 3711,
      "baig": 3712,
      "bloquÃ©": 3713,
      "bosnie": 3714,
      "cendants": 3715,
      "handicap": 3716,
      "ploitation": 3717,
      "scÃ©nari": 3718,
      "taiwan": 3719,
      "vulnÃ©": 3720,
      "zimbab": 3721,
      "Ã©tay": 3722,
      "enregist": 3723,
      "espace": 3724,
      "escalade": 3725,
      "erbaÃ¯dj": 3726,
      "enthousias": 3727,
      "intrinsÃ¨": 3728,
      "inaperÃ§": 3729,
      "ininterrom": 3730,
      "indonÃ©s": 3731,
      "infÃ©rieur": 3732,
      "leaders": 3733,
      "dÃ©sÃ©qui": 3734,
      "dÃ©mante": 3735,
      "rÃ©chau": 3736,
      "rÃ©guli": 3737,
      "chapit": 3738,
      "proviso": 3739,
      "experts": 3740,
      "dumping": 3741,
      "inspection": 3742,
      "coÃ¯nci": 3743,
      "unanimitÃ©": 3744,
      "consensus": 3745,
      "interviendront": 3746,
      "obaromÃ¨tre": 3747,
      "euromÃ©diterranÃ©": 3748,
      "surveillance": 3749,
      "amÃ©liorations": 3750,
      "pÃ©riphÃ©riques": 3751,
      "erbaÃ¯djan": 3752,
      "enthousiasme": 3753
    },
    "merges": [
      "Ã ©",
      "e n",
      "o n",
      "e s",
      "e r",
      "t i",
      "en t",
      "a n",
      "i n",
      "i s",
      "r e",
      "ti on",
      "r a",
      "i t",
      "â Ģ",
      "âĢ Ļ",
      "l e",
      "p r",
      "q u",
      "o u",
      "o r",
      "m ent",
      "a r",
      "l i",
      "d Ã©",
      "t e",
      "c on",
      "u r",
      "a l",
      "r Ã©",
      "a tion",
      "an t",
      "c h",
      "o m",
      "d i",
      "r i",
      "c e",
      "a u",
      "Ã© s",
      "a i",
      "s e",
      "on s",
      "a c",
      "e l",
      "s i",
      "a b",
      "Ã ¨",
      "c i",
      "a t",
      "d e",
      "r es",
      "t er",
      "t Ã©",
      "a g",
      "u s",
      "pr o",
      "c om",
      "p o",
      "t r",
      "l es",
      "f i",
      "v i",
      "e x",
      "a p",
      "m e",
      "a s",
      "l Ã©",
      "a m",
      "qu e",
      "n e",
      "l o",
      "i l",
      "t u",
      "v e",
      "i m",
      "o p",
      "p ar",
      "Ã© e",
      "u l",
      "it Ã©",
      "v o",
      "d u",
      "t en",
      "in s",
      "ou r",
      "f f",
      "p or",
      "s er",
      "s u",
      "l a",
      "i e",
      "t ra",
      "t es",
      "v er",
      "i r",
      "n Ã©",
      "a it",
      "l u",
      "c o",
      "Ã ª",
      "a d",
      "m o",
      "pr Ã©",
      "p er",
      "p e",
      "r o",
      "a is",
      "qu es",
      "p Ã©",
      "u n",
      "ur s",
      "f or",
      "s ou",
      "en d",
      "g e",
      "m a",
      "d is",
      "le ment",
      "con s",
      "c es",
      "t s",
      "ation s",
      "m in",
      "on t",
      "tion s",
      "s o",
      "s Ã©",
      "g Ã©",
      "m p",
      "e u",
      "v en",
      "an ce",
      "ac c",
      "m an",
      "ag e",
      "m Ã©",
      "u e",
      "t re",
      "in ter",
      "ai re",
      "a v",
      "or d",
      "com p",
      "o b",
      "en s",
      "en ce",
      "t a",
      "t ri",
      "g i",
      "l an",
      "l is",
      "ant s",
      "Ã¨ re",
      "e ur",
      "Ã© r",
      "ai res",
      "el le",
      "c u",
      "i g",
      "ab le",
      "a le",
      "n o",
      "Ã© es",
      "t o",
      "in e",
      "ap p",
      "n i",
      "an s",
      "m es",
      "er a",
      "ch e",
      "au x",
      "si on",
      "en ti",
      "ment s",
      "po s",
      "as s",
      "a ti",
      "m b",
      "m ar",
      "v is",
      "c er",
      "c ou",
      "d ent",
      "f in",
      "i re",
      "n er",
      "t ent",
      "ra tion",
      "al is",
      "d es",
      "Ã© t",
      "pr Ã©s",
      "com m",
      "d er",
      "v es",
      "te urs",
      "al es",
      "di c",
      "c l",
      "p a",
      "p u",
      "it e",
      "tr u",
      "b u",
      "c ti",
      "f on",
      "in tÃ©",
      "l er",
      "l le",
      "n ent",
      "au t",
      "d a",
      "m on",
      "s t",
      "pr i",
      "fi c",
      "p h",
      "r an",
      "ou v",
      "li b",
      "li c",
      "tr ans",
      "por t",
      "b i",
      "c tion",
      "g u",
      "Ã ®",
      "er s",
      "ti s",
      "is s",
      "it Ã©s",
      "te ur",
      "b les",
      "c ri",
      "g ra",
      "j e",
      "m is",
      "p i",
      "ti tu",
      "dÃ© p",
      "el les",
      "o c",
      "par ti",
      "c r",
      "i ent",
      "l in",
      "r er",
      "ti que",
      "li g",
      "ce p",
      "ne ment",
      "for m",
      "c Ã©",
      "d o",
      "i on",
      "or g",
      "se ment",
      "el s",
      "ab les",
      "c ul",
      "m i",
      "r en",
      "Ã §",
      "Ã© ra",
      "is t",
      "it er",
      "ch er",
      "tu re",
      "e mp",
      "t h",
      "v Ã©",
      "is e",
      "qu er",
      "con n",
      "am Ã©",
      "c ent",
      "c ar",
      "c rÃ©",
      "d re",
      "j ou",
      "j us",
      "u x",
      "Ã ´",
      "ti l",
      "qu i",
      "org an",
      "a li",
      "b le",
      "b il",
      "c a",
      "h u",
      "l ab",
      "m en",
      "r on",
      "an g",
      "an te",
      "is ation",
      "ai ent",
      "me t",
      "lÃ© g",
      "c is",
      "f er",
      "l Ã¨",
      "n es",
      "t Ã©s",
      "v al",
      "ent e",
      "an ti",
      "in c",
      "le x",
      "so ci",
      "d on",
      "s ur",
      "t ur",
      "v a",
      "in di",
      "rÃ© s",
      "Ã¨ res",
      "ap pro",
      "ff e",
      "f fi",
      "g ar",
      "j u",
      "l ar",
      "r ou",
      "s y",
      "u ti",
      "v ou",
      "en g",
      "ti f",
      "re c",
      "ou ver",
      "Ã¨ s",
      "ex p",
      "b li",
      "c ra",
      "d in",
      "l on",
      "p our",
      "ti n",
      "in es",
      "rÃ© e",
      "tr o",
      "un i",
      "d en",
      "d ou",
      "f Ã©",
      "f ra",
      "g o",
      "m er",
      "t ou",
      "v ent",
      "ti ques",
      "an n",
      "is te",
      "pr es",
      "li m",
      "dÃ© f",
      "te ment",
      "se mb",
      "at ten",
      "tÃ© e",
      "pro du",
      "im p",
      "pe c",
      "tri bu",
      "prÃ©s ent",
      "c or",
      "e z",
      "i ons",
      "o s",
      "r Ãª",
      "s a",
      "s us",
      "en ne",
      "re pr",
      "us es",
      "po si",
      "po ser",
      "pa ra",
      "c our",
      "g ment",
      "i d",
      "j our",
      "m ul",
      "r u",
      "s es",
      "Ã »",
      "Ã ł",
      "ti ve",
      "ra it",
      "pr im",
      "con si",
      "al itÃ©",
      "rÃ© g",
      "ins t",
      "gÃ© nÃ©",
      "eu x",
      "acc ord",
      "amÃ© li",
      "b at",
      "d am",
      "f a",
      "f u",
      "g er",
      "h on",
      "i que",
      "j o",
      "p en",
      "r ent",
      "u re",
      "v re",
      "en nent",
      "is er",
      "re t",
      "tion n",
      "ra p",
      "it s",
      "con tra",
      "ant es",
      "au gment",
      "ai l",
      "ac cep",
      "si g",
      "si ons",
      "vo ir",
      "d s",
      "f ac",
      "g ie",
      "g ue",
      "l ac",
      "n a",
      "n ation",
      "o l",
      "s pÃ©",
      "t at",
      "Â «",
      "Â »",
      "Ã© n",
      "Ã© ch",
      "re g",
      "qu Ã©",
      "ur er",
      "di ff",
      "res s",
      "tÃ© es",
      "il le",
      "vo y",
      "su b",
      "su i",
      "ver s",
      "co l",
      "ad op",
      "ma in",
      "tru c",
      "cti f",
      "uti lis",
      "b an",
      "b ar",
      "c lu",
      "e m",
      "h ar",
      "h ait",
      "p on",
      "t ant",
      "v el",
      "Ã ¢",
      "Ã© g",
      "ent s",
      "is es",
      "pr om",
      "al l",
      "ri eur",
      "au s",
      "ai lle",
      "ab il",
      "po sÃ©",
      "lo y",
      "op Ã©",
      "sou hait",
      "end re",
      "ven ir",
      "ob ser",
      "app li",
      "cou ra",
      "aut or",
      "oc cu",
      "consi dÃ©",
      "0 0",
      "a ra",
      "a ff",
      "b e",
      "c ro",
      "d us",
      "e ffe",
      "i ti",
      "l les",
      "m al",
      "p la",
      "r ont",
      "s on",
      "s ch",
      "u er",
      "en ces",
      "es p",
      "es ti",
      "is me",
      "re f",
      "dÃ© e",
      "ch es",
      "ab ord",
      "Ã¨ me",
      "at ta",
      "de v",
      "po se",
      "ex am",
      "ap pr",
      "as se",
      "lÃ© es",
      "lo gi",
      "su p",
      "tra v",
      "pÃ© ri",
      "cons titu",
      "eu re",
      "intÃ© g",
      "fic ation",
      "spÃ© ci",
      "b a",
      "b er",
      "c an",
      "d om",
      "f Ã©r",
      "h i",
      "i ra",
      "l h",
      "l s",
      "l en",
      "l or",
      "m u",
      "m ag",
      "n Ã©s",
      "o is",
      "o ra",
      "o ff",
      "p re",
      "r ons",
      "t ons",
      "v it",
      "Ã© tu",
      "es t",
      "ti v",
      "in er",
      "ra ient",
      "qu ent",
      "qu ant",
      "li r",
      "li er",
      "dÃ© s",
      "dÃ© mo",
      "con cer",
      "di re",
      "ci p",
      "pro f",
      "fi er",
      "lo b",
      "lo c",
      "ins titu",
      "so lu",
      "comm un",
      "cti ve",
      "dÃ©p end",
      "conn ais",
      "organ is",
      "id enti",
      "amÃ©li or",
      "vel op",
      "a si",
      "a jou",
      "b Ã©",
      "c ap",
      "f ri",
      "f our",
      "f ait",
      "h Ã©r",
      "m at",
      "n ou",
      "r Ã¨",
      "t ation",
      "t our",
      "t age",
      "Ã ¯",
      "Ã© qui",
      "en de",
      "an ci",
      "an ge",
      "ra is",
      "it o",
      "it es",
      "or i",
      "or ient",
      "ar i",
      "dÃ© fin",
      "te lle",
      "con tribu",
      "al le",
      "rÃ© alis",
      "ch a",
      "ch ar",
      "ri r",
      "se x",
      "el lement",
      "ci r",
      "de man",
      "res pec",
      "ag es",
      "il l",
      "im port",
      "op h",
      "du c",
      "por tu",
      "nÃ© go",
      "per met",
      "min is",
      "eu se",
      "lan d",
      "ati ve",
      "pu is",
      "lic ation",
      "iss ent",
      "bil itÃ©",
      "lab or",
      "exp lo",
      "posi tion",
      "nÃ©go ci",
      "a lement",
      "b on",
      "b re",
      "c at",
      "c tu",
      "d ant",
      "f fic",
      "g ent",
      "g ran",
      "h Ã©s",
      "h ab",
      "m il",
      "m ont",
      "n or",
      "n om",
      "p ra",
      "p ou",
      "r ant",
      "s tra",
      "s truc",
      "t an",
      "t te",
      "Å ĵ",
      "Ã© vo",
      "ent repr",
      "in f",
      "in g",
      "in dre",
      "is tes",
      "ra l",
      "ra s",
      "it u",
      "it ation",
      "it aires",
      "le ur",
      "con om",
      "ch i",
      "di m",
      "ac comp",
      "ci dent",
      "at o",
      "at s",
      "de x",
      "ter a",
      "us er",
      "com pÃ©",
      "vi ron",
      "ex er",
      "as soci",
      "ff or",
      "por te",
      "Ãª te",
      "pe u",
      "ces s",
      "ven u",
      "mÃ© di",
      "av ant",
      "Ã¨re ment",
      "cri min",
      "jus ti",
      "ffi ci",
      "diff Ã©r",
      "dÃ©mo cra",
      "c ur",
      "c am",
      "d op",
      "d ro",
      "e mb",
      "f ais",
      "g a",
      "g es",
      "i res",
      "l ou",
      "m ig",
      "n u",
      "n Ã©e",
      "p es",
      "p el",
      "p ouv",
      "r is",
      "s or",
      "s ant",
      "s au",
      "s enti",
      "t on",
      "t res",
      "u ne",
      "v ra",
      "y er",
      "Ã© le",
      "Ã© conom",
      "en coura",
      "ti ves",
      "ent ra",
      "an ces",
      "in ves",
      "in form",
      "is ant",
      "is se",
      "pr in",
      "pr is",
      "qu o",
      "qu el",
      "qu Ã©e",
      "ar d",
      "dÃ© velop",
      "te ch",
      "con f",
      "rÃ© si",
      "rÃ© gi",
      "di rec",
      "ai r",
      "ac tu",
      "de m",
      "tÃ© lÃ©",
      "ag er",
      "pro b",
      "po li",
      "tr er",
      "fi x",
      "vi e",
      "vi end",
      "vi ol",
      "ex is",
      "ex emp",
      "lÃ© e",
      "lÃ© ment",
      "lÃ© gi",
      "ve ment",
      "ul ation",
      "ten u",
      "nÃ© g",
      "nÃ© es",
      "nÃ© fi",
      "nÃ© cess",
      "Ãª me",
      "ad res",
      "prÃ© cis",
      "prÃ© occu",
      "ais e",
      "cons tru",
      "ob je",
      "ob lig",
      "app el",
      "Ã©t ab",
      "prÃ©s i",
      "pu bli",
      "fon da",
      "intÃ© rÃª",
      "Ã® tre",
      "cul ture",
      "ren for",
      "Ã´ t",
      "lar g",
      "vou s",
      "prim er",
      "bÃ© nÃ©fi",
      "a teurs",
      "a ffi",
      "b o",
      "b as",
      "b our",
      "c al",
      "c la",
      "c tions",
      "d ar",
      "d ur",
      "e urs",
      "f is",
      "g ro",
      "g ence",
      "i tion",
      "i ques",
      "l ant",
      "l am",
      "n on",
      "n at",
      "n itÃ©",
      "p l",
      "p ac",
      "p lan",
      "r om",
      "s en",
      "s an",
      "t ab",
      "v ation",
      "Ã© ri",
      "Ã© tr",
      "Ã© val",
      "Ã© labor",
      "en vis",
      "en viron",
      "on ner",
      "ti c",
      "an i",
      "in t",
      "in no",
      "is sement",
      "re ti",
      "re mp",
      "re prÃ©sent",
      "ra tions",
      "ra dic",
      "pr en",
      "pr end",
      "dÃ© ci",
      "dÃ© cis",
      "con du",
      "con tre",
      "con tin",
      "al li",
      "al itÃ©s",
      "rÃ© es",
      "au to",
      "Ã¨ te",
      "Ã¨ ne",
      "ci e",
      "ci vi",
      "tÃ© rieur",
      "us si",
      "com b",
      "tr ouv",
      "fi Ã©",
      "fi que",
      "vi ons",
      "vi du",
      "lo i",
      "ve z",
      "par t",
      "vo l",
      "du e",
      "ten ce",
      "ten us",
      "ten ir",
      "tra it",
      "Ãª tre",
      "inter ven",
      "av or",
      "tri e",
      "lan de",
      "eur opÃ©",
      "Ã©r er",
      "to ire",
      "app u",
      "pos Ã©s",
      "ass ur",
      "ati s",
      "Ã©t at",
      "comm uni",
      "lib re",
      "lib Ã©ra",
      "bi en",
      "cr it",
      "ist ance",
      "amÃ© ri",
      "jus qu",
      "tif s",
      "tro du",
      "ann on",
      "semb le",
      "imp li",
      "har mon",
      "exam in",
      "trav ail",
      "connais s",
      "four n",
      "nou s",
      "minis tra",
      "hÃ©s ion",
      "Åĵ u",
      "fonda ment",
      "a dÃ©",
      "a ch",
      "a ffe",
      "b ou",
      "b ri",
      "c k",
      "c re",
      "c au",
      "c Ã©e",
      "c ad",
      "d ence",
      "e ffor",
      "f ran",
      "g ouver",
      "h o",
      "h eure",
      "i f",
      "i Ã¨me",
      "l l",
      "l it",
      "l ation",
      "l ons",
      "m or",
      "n el",
      "n ie",
      "p ons",
      "p ens",
      "p ass",
      "s ag",
      "s Ã»",
      "s atis",
      "t able",
      "u se",
      "u sement",
      "v ant",
      "v itÃ©",
      "y s",
      "y en",
      "Ã© qu",
      "Ã© vi",
      "Ã© ten",
      "Ã© co",
      "Ã© ner",
      "Ã© larg",
      "er ci",
      "ti p",
      "ent es",
      "an im",
      "in ten",
      "in tes",
      "in iti",
      "in dÃ©pend",
      "re le",
      "re la",
      "re ven",
      "re mar",
      "ra b",
      "ra ble",
      "it ants",
      "it ali",
      "le t",
      "pr Ã¨s",
      "or ig",
      "ar ri",
      "li min",
      "dÃ© si",
      "dÃ© rou",
      "dÃ© bat",
      "con tr",
      "con ser",
      "con ven",
      "con clu",
      "ur i",
      "al y",
      "rÃ© du",
      "rÃ© pon",
      "rÃ© solu",
      "ch o",
      "om Ã©",
      "di o",
      "au d",
      "au tre",
      "ai der",
      "ac itÃ©",
      "si mp",
      "ab s",
      "ci er",
      "at Ã©ra",
      "ter r",
      "ter min",
      "ag ri",
      "ag ne",
      "pro g",
      "po ir",
      "vi ennent",
      "ex ig",
      "ap por",
      "am bi",
      "op e",
      "op Ã©ra",
      "ins tru",
      "ff is",
      "lu tion",
      "ad ministra",
      "mo d",
      "mo di",
      "prÃ© cÃ©",
      "per son",
      "ais es",
      "for me",
      "sou s",
      "sou ti",
      "ge ment",
      "ma j",
      "cons ac",
      "sÃ© ri",
      "man d",
      "age ment",
      "ue il",
      "eur o",
      "to lÃ©",
      "pos ent",
      "vis ion",
      "dent e",
      "alis ation",
      "comm en",
      "Ã® t",
      "gra ph",
      "til s",
      "hu i",
      "hu man",
      "ang er",
      "tur es",
      "indi vidu",
      "appro pri",
      "pres sion",
      "rap pel",
      "sub st",
      "effe ctu",
      "logi que",
      "lor s",
      "fri ca",
      "rÃ¨ g",
      "ato ire",
      "entra Ã®",
      "nat ure",
      "environ nement",
      "affe c",
      "cad re",
      "a y",
      "a ce",
      "a ve",
      "a ine",
      "b es",
      "b ur",
      "b el",
      "b ul",
      "c t",
      "c y",
      "c in",
      "c Ã©s",
      "c Ã©es",
      "c teurs",
      "c Ã´",
      "c ito",
      "d y",
      "d it",
      "d ons",
      "d iter",
      "e uses",
      "e ffic",
      "f ai",
      "f am",
      "f lu",
      "f lex",
      "f avor",
      "g h",
      "g Ã©s",
      "g ag",
      "g rou",
      "h y",
      "h om",
      "i dÃ©",
      "i ci",
      "j eu",
      "j uri",
      "m ou",
      "m ation",
      "m as",
      "n is",
      "o li",
      "o ration",
      "o ffici",
      "p p",
      "p tion",
      "p au",
      "p as",
      "p lu",
      "p Ãª",
      "r ance",
      "s al",
      "s ter",
      "s lo",
      "t tes",
      "t ait",
      "u m",
      "v u",
      "v Ã©e",
      "v Ã©r",
      "Ã© tÃ©",
      "Ã© lÃ©",
      "Ã© lo",
      "en se",
      "en du",
      "es senti",
      "ti g",
      "ti r",
      "ti ni",
      "ti ers",
      "an don",
      "in ts",
      "in fra",
      "in dus",
      "is ter",
      "is Ã©es",
      "re li",
      "ra les",
      "ra bles",
      "pr on",
      "pr Ãª",
      "qu is",
      "qu at",
      "ou bli",
      "ar rÃª",
      "dÃ© tru",
      "te x",
      "te mp",
      "con di",
      "con tent",
      "al ler",
      "rÃ© di",
      "rÃ© jou",
      "ch ange",
      "di min",
      "ri ons",
      "ce ll",
      "au jour",
      "ai e",
      "ai de",
      "se z",
      "se ments",
      "ac tion",
      "si ve",
      "si ble",
      "ab ou",
      "ab lement",
      "ab andon",
      "Ã¨ rent",
      "at h",
      "at tribu",
      "de ur",
      "de me",
      "res pons",
      "pro c",
      "pro tÃ©",
      "pro vo",
      "pro por",
      "pro cÃ©",
      "po ten",
      "fi Ã©s",
      "fi Ã©e",
      "vi g",
      "vi r",
      "vi ent",
      "vi ens",
      "ex ist",
      "am ment",
      "ne ments",
      "il lÃ©g",
      "ins ta",
      "su g",
      "la is",
      "la it",
      "co Ã»",
      "ad ap",
      "ad hÃ©sion",
      "prÃ© ci",
      "prÃ© par",
      "pe ti",
      "pe ment",
      "sou ff",
      "ma tique",
      "dis cu",
      "cons tat",
      "min im",
      "so l",
      "acc ro",
      "av is",
      "av ons",
      "ord re",
      "comp li",
      "ig n",
      "app lication",
      "pos Ã©e",
      "ass urer",
      "ati f",
      "mb re",
      "mar ch",
      "cer ta",
      "cou p",
      "fin anci",
      "alis er",
      "alis te",
      "comm erci",
      "cl ar",
      "bu d",
      "st abil",
      "tis sement",
      "cri ti",
      "parti cu",
      "men tion",
      "lÃ©g is",
      "inc lu",
      "rÃ©s ul",
      "gar anti",
      "sy n",
      "tou ch",
      "atten tion",
      "cour s",
      "mul tip",
      "tive ment",
      "rÃ©g ul",
      "rÃ©g lement",
      "sig n",
      "fac il",
      "reg is",
      "reg ret",
      "ctif s",
      "aille urs",
      "posÃ© es",
      "abord er",
      "intÃ©g ration",
      "pre mi",
      "prof es",
      "ende ment",
      "struc ture",
      "compÃ© ti",
      "mig ration",
      "prin cip",
      "tech no",
      "rÃ©gi on",
      "adres se",
      "prÃ©occu p",
      "intÃ©rÃª t",
      "affi r",
      "contr Ã´",
      "diter ran",
      "aujour d",
      "poten ti",
      "a o",
      "a de",
      "a ver",
      "a che",
      "a voir",
      "b r",
      "b al",
      "b lic",
      "c ation",
      "c tÃ©",
      "c as",
      "c itÃ©",
      "c un",
      "c to",
      "d ra",
      "d itÃ©",
      "d anger",
      "e t",
      "e th",
      "f ab",
      "f ron",
      "f ois",
      "g en",
      "g ri",
      "g Ã©e",
      "h or",
      "h au",
      "h eur",
      "i es",
      "k i",
      "k o",
      "l al",
      "l au",
      "l us",
      "l acc",
      "l inter",
      "l Ãł",
      "m ons",
      "m ac",
      "m Ã©e",
      "m Ãª",
      "n au",
      "n am",
      "n ul",
      "n ouv",
      "o t",
      "o le",
      "p s",
      "p an",
      "p le",
      "p te",
      "p ie",
      "r ence",
      "s om",
      "s ais",
      "s tri",
      "t al",
      "t ail",
      "u ation",
      "u el",
      "u elle",
      "v Ã©s",
      "v as",
      "v Ã©es",
      "v iter",
      "w e",
      "w al",
      "x im",
      "y ens",
      "Ã «",
      "Ã ¶",
      "Ã ¹",
      "Ã© ment",
      "Ã© rÃ©",
      "Ã© cu",
      "Ã© do",
      "Ã© met",
      "Ã© vent",
      "Ã© duc",
      "en f",
      "en nes",
      "on n",
      "on tils",
      "er re",
      "er ait",
      "ti ens",
      "ti lis",
      "ti rer",
      "ti ennent",
      "ent am",
      "an ie",
      "an aly",
      "in o",
      "in te",
      "in du",
      "in dic",
      "in trodu",
      "is ent",
      "is Ã©s",
      "re z",
      "re qu",
      "re ce",
      "re au",
      "re com",
      "re je",
      "re conn",
      "re lÃ¨",
      "re jo",
      "ra i",
      "ra ti",
      "ra le",
      "ra lis",
      "ra pi",
      "it aire",
      "pr u",
      "pr un",
      "pr ouv",
      "qu Ã©s",
      "qu il",
      "qu ali",
      "or dÃ©",
      "or tis",
      "li ers",
      "dÃ© mar",
      "dÃ© bu",
      "dÃ© mon",
      "dÃ© clar",
      "dÃ© tail",
      "te z",
      "te lles",
      "con tes",
      "con cent",
      "con crÃ©",
      "con va",
      "con dam",
      "con jo",
      "ur es",
      "rÃ© ser",
      "rÃ© pÃ©",
      "rÃ© vis",
      "rÃ© cent",
      "rÃ© fu",
      "rÃ© fÃ©r",
      "ch u",
      "ch y",
      "ch ons",
      "di d",
      "di e",
      "di en",
      "di es",
      "di ri",
      "di ver",
      "se u",
      "se ur",
      "ac t",
      "ac tiv",
      "ac cident",
      "si bles",
      "Ã¨ de",
      "Ã¨ nes",
      "at te",
      "at tent",
      "de ment",
      "tÃ© ri",
      "ag ent",
      "pro fon",
      "pro pri",
      "pro gra",
      "com ment",
      "com bat",
      "po l",
      "po p",
      "tr ou",
      "tr oph",
      "fi g",
      "ex prim",
      "ex clu",
      "ex pÃ©ri",
      "ex tÃ©rieur",
      "ap par",
      "me ment",
      "me ille",
      "ne u",
      "lo p",
      "lo s",
      "lo is",
      "il ler",
      "ve aux",
      "op portu",
      "par lement",
      "vo is",
      "vo it",
      "vo ter",
      "ten ant",
      "por ter",
      "por tÃ©",
      "por ts",
      "su per",
      "su ffis",
      "la d",
      "tra ite",
      "co le",
      "co ord",
      "co hÃ©r",
      "Ãª tres",
      "ad mis",
      "mo yen",
      "prÃ© ten",
      "per ti",
      "per pÃ©",
      "per man",
      "ro y",
      "pÃ© n",
      "for mes",
      "sou le",
      "sou mis",
      "ge ant",
      "ma xim",
      "dis par",
      "dis tin",
      "dis crimin",
      "cons om",
      "so li",
      "gÃ© es",
      "acc ueil",
      "mÃ© dic",
      "mÃ© can",
      "inter nation",
      "av an",
      "ta x",
      "ig nement",
      "no t",
      "ni er",
      "ni que",
      "ni ers",
      "che ment",
      "ati ves",
      "cou ver",
      "fin ance",
      "alis tes",
      "Ã©t ait",
      "dic tion",
      "cl us",
      "cl air",
      "pa ys",
      "pu blic",
      "cti ves",
      "fon ction",
      "mon di",
      "pri or",
      "fic ations",
      "ph on",
      "lic ations",
      "trans par",
      "port ation",
      "bi o",
      "gu es",
      "iss ant",
      "dÃ©p loy",
      "oc ca",
      "parti cip",
      "cr u",
      "cep ti",
      "form er",
      "form ation",
      "Ã§ ant",
      "Ã§ ons",
      "emp loi",
      "qui Ã©tu",
      "organ isation",
      "bil atÃ©ra",
      "ca ra",
      "hu ma",
      "inc ap",
      "appro che",
      "appro fon",
      "ju di",
      "vou d",
      "eng agement",
      "ouver ture",
      "pour sui",
      "fÃ© dÃ©",
      "fÃ© lic",
      "tou t",
      "atten dre",
      "jour n",
      "accord er",
      "fa ce",
      "hon ora",
      "augment er",
      "Ã©n or",
      "utilis ation",
      "em prun",
      "abil itÃ©",
      "appli quer",
      "autor isation",
      "00 0",
      "mag ne",
      "institu tionn",
      "commun aut",
      "cap it",
      "fri que",
      "fait s",
      "dÃ©fin i",
      "alle magne",
      "portu g",
      "puis qu",
      "hab itu",
      "stra tÃ©",
      "accomp ag",
      "associ ation",
      "mÃ©di a",
      "sau ve",
      "tÃ©lÃ© phon",
      "exis tence",
      "nÃ©g li",
      "fis c",
      "pac i",
      "Ã©tr ang",
      "envis age",
      "dÃ©cis ion",
      "contin u",
      "vol ont",
      "interven tion",
      "amÃ©ri ca",
      "harmon isation",
      "Åĵu vre",
      "gouver nement",
      "orig ine",
      "prog res",
      "maj or",
      "subst anti",
      "lÃ©gis la",
      "syn dic",
      "rÃ©gul ar",
      "profes sion",
      "diterran Ã©",
      "fab ri",
      "progra m",
      "a f",
      "a z",
      "a vi",
      "a jus",
      "a prÃ¨s",
      "a frica",
      "b it",
      "b ab",
      "c s",
      "c en",
      "c li",
      "c us",
      "c lÃ©",
      "c tes",
      "c teur",
      "d j",
      "d ag",
      "d ad",
      "d inter",
      "d ite",
      "e d",
      "f o",
      "f au",
      "f at",
      "f eu",
      "g rÃ©",
      "g as",
      "g Ãª",
      "g rec",
      "g lob",
      "h is",
      "h ou",
      "h aus",
      "i bles",
      "i ble",
      "i bilitÃ©",
      "k y",
      "k ra",
      "k ara",
      "l ent",
      "l ag",
      "l itÃ©",
      "l our",
      "l ance",
      "m s",
      "m ment",
      "m au",
      "m Ã©s",
      "m ie",
      "m ais",
      "m aire",
      "m Ãªme",
      "n it",
      "n ant",
      "n ons",
      "n ci",
      "n our",
      "n av",
      "n ord",
      "n elle",
      "n era",
      "n elles",
      "o g",
      "o re",
      "o po",
      "o la",
      "o gue",
      "o Ã¹",
      "p t",
      "p al",
      "p pe",
      "p ati",
      "p ales",
      "p lac",
      "p asse",
      "p leur",
      "p aie",
      "r y",
      "r ants",
      "r Ã¨s",
      "s ti",
      "s ci",
      "s tÃ©",
      "s tu",
      "s itÃ©",
      "s ins",
      "s pe",
      "s age",
      "s av",
      "s ence",
      "s ta",
      "s ants",
      "s to",
      "t or",
      "t rÃ©",
      "t om",
      "t ations",
      "t aire",
      "t Ã¢",
      "u els",
      "v an",
      "v in",
      "v ons",
      "v end",
      "v acc",
      "v ue",
      "v ale",
      "w an",
      "x i",
      "x emb",
      "y eux",
      "y pte",
      "z e",
      "z i",
      "z o",
      "z Ã©",
      "z on",
      "Ã ¼",
      "Ã© cou",
      "Ã© mis",
      "Ã© car",
      "Ã© gar",
      "Ã© limin",
      "en ser",
      "en va",
      "en semble",
      "on nement",
      "on nÃ©e",
      "es pr",
      "es pÃ©",
      "es sa",
      "es poir",
      "er land",
      "ti e",
      "ti ent",
      "ti ser",
      "ti Ã¨res",
      "an e",
      "in Ã©",
      "in ation",
      "in aires",
      "in ion",
      "in uti",
      "is ations",
      "re lig",
      "re cher",
      "re ux",
      "re mer",
      "re produ",
      "re connaiss",
      "ra y",
      "ra dio",
      "it ent",
      "it ant",
      "it ations",
      "it era",
      "qu it",
      "qu au",
      "qu era",
      "qu elles",
      "qu els",
      "qu anti",
      "qu Ãªte",
      "or de",
      "ar mÃ©",
      "ar gent",
      "ar tic",
      "li v",
      "li Ã©s",
      "li que",
      "li mp",
      "dÃ© ce",
      "dÃ© ro",
      "dÃ© ta",
      "dÃ© bar",
      "dÃ© termin",
      "te m",
      "te ux",
      "con i",
      "con t",
      "con ci",
      "con fi",
      "con ver",
      "con cr",
      "con cur",
      "ur ent",
      "ur gence",
      "al lÃ©",
      "al ban",
      "al ogue",
      "rÃ© f",
      "rÃ© un",
      "rÃ© parti",
      "rÃ© vÃ©",
      "rÃ© uni",
      "rÃ© ussi",
      "ch ir",
      "ch asse",
      "ch ois",
      "di que",
      "di ques",
      "di tions",
      "di vers",
      "di ffici",
      "ri d",
      "ri ces",
      "au tri",
      "ai til",
      "ai bli",
      "ons nous",
      "ac i",
      "ac es",
      "ac ul",
      "ac tions",
      "el d",
      "si Ã¨",
      "ab o",
      "ab solu",
      "Ã¨ tes",
      "ci b",
      "at ri",
      "de mp",
      "de ux",
      "res tri",
      "res truc",
      "res pon",
      "ter n",
      "ter ra",
      "ter ait",
      "ag Ã©",
      "ag no",
      "pro je",
      "pro cha",
      "com pr",
      "po que",
      "tr ent",
      "tr ons",
      "tr Ãªme",
      "fi e",
      "fi ques",
      "vi ce",
      "ex ac",
      "ex iste",
      "ex primer",
      "ex cell",
      "ex Ã©cu",
      "ap parti",
      "ap prÃ©ci",
      "as ser",
      "as su",
      "as semb",
      "as pec",
      "as troph",
      "am en",
      "am endement",
      "ne t",
      "lo gie",
      "il s",
      "il les",
      "ve u",
      "ve ur",
      "ve au",
      "ve iller",
      "im mo",
      "im pÃ©",
      "im pos",
      "im parti",
      "im poser",
      "op ie",
      "op poser",
      "par er",
      "par ten",
      "par tage",
      "vo lution",
      "du es",
      "ten d",
      "ten tion",
      "ten ue",
      "ins istance",
      "ff re",
      "por ta",
      "ser a",
      "su Ã©do",
      "ir ons",
      "ir land",
      "nÃ© erland",
      "lu xemb",
      "Ãª tes",
      "Ãª cher",
      "mo ra",
      "mo der",
      "mo tiv",
      "prÃ© ven",
      "per tur",
      "pe ments",
      "for mÃ©",
      "sou lig",
      "end ant",
      "ge ments",
      "ma Ã®",
      "ma tiques",
      "dis pos",
      "dis para",
      "dis pon",
      "cons t",
      "cons ci",
      "cons ul",
      "cons enti",
      "cons Ã©qu",
      "sÃ© v",
      "sÃ© es",
      "ven ue",
      "acc ent",
      "acc Ã¨s",
      "man i",
      "man if",
      "mÃ© th",
      "inter prÃ©",
      "comp ter",
      "comp ag",
      "comp ati",
      "comp lÃ¨",
      "comp lÃ©ment",
      "ob st",
      "ens es",
      "gi es",
      "gi que",
      "lis s",
      "lis te",
      "lis sement",
      "eur ope",
      "ig ne",
      "ig no",
      "to tal",
      "to xi",
      "ine ment",
      "app elle",
      "app ara",
      "ni es",
      "ni ques",
      "sion nÃ©",
      "ass in",
      "ass istance",
      "ati l",
      "ati que",
      "mar i",
      "cou rir",
      "dent s",
      "fin an",
      "ner gie",
      "alis me",
      "des tin",
      "des sus",
      "Ã©t aient",
      "prÃ©s er",
      "prÃ©s ente",
      "comm is",
      "cl Ã©s",
      "cl am",
      "cl ari",
      "bu reau",
      "intÃ© ri",
      "intÃ© res",
      "intÃ© gra",
      "intÃ© ress",
      "intÃ© rieur",
      "nent ra",
      "aut ant",
      "aut om",
      "aut res",
      "da ff",
      "mon Ã©t",
      "st at",
      "pri me",
      "ph y",
      "ph Ã©n",
      "lib er",
      "port ant",
      "port Ã©s",
      "port ations",
      "gu re",
      "tis ation",
      "tis sements",
      "iss ons",
      "iss ance",
      "cri re",
      "parti ci",
      "tique ment",
      "cep tion",
      "form u",
      "do s",
      "do cu",
      "mi d",
      "mi li",
      "ren voy",
      "Ã§ on",
      "Ã§ ue",
      "ist an",
      "emp loy",
      "th Ã¨",
      "vÃ© ri",
      "conn u",
      "crÃ© di",
      "organ iser",
      "men er",
      "ang le",
      "met tre",
      "cis me",
      "val ent",
      "don ner",
      "appro b",
      "gar de",
      "sy mb",
      "sy stÃ©",
      "tro i",
      "tro is",
      "dou lou",
      "fÃ© min",
      "ann Ã©e",
      "lim iter",
      "semb ler",
      "cor respon",
      "sus c",
      "posi tions",
      "Ãł dire",
      "consi d",
      "accord s",
      "amÃ©li oration",
      "fa vo",
      "pen sez",
      "ret our",
      "rap pro",
      "contra ign",
      "augment ation",
      "accep te",
      "accep ter",
      "sig ni",
      "na vig",
      "Ã©ch ange",
      "sui v",
      "col lÃ¨",
      "adop ter",
      "ban c",
      "Ã©g alitÃ©",
      "souhait er",
      "obser va",
      "appli que",
      "coura ge",
      "autor itÃ©",
      "occu per",
      "aff aires",
      "pla is",
      "esp Ã¨re",
      "esp agno",
      "esti me",
      "ref us",
      "atta quer",
      "exam iner",
      "appr ouver",
      "logi es",
      "logi ques",
      "trav aille",
      "can did",
      "hi er",
      "pre u",
      "Ã©tu di",
      "tiv itÃ©",
      "lob je",
      "institu tion",
      "organis ations",
      "amÃ©lior er",
      "velop pe",
      "asi e",
      "asi le",
      "ajou te",
      "ajou ter",
      "fait e",
      "Ã©qui lib",
      "orient ation",
      "cir cul",
      "respec tu",
      "ill us",
      "oph ob",
      "explo itation",
      "cat astroph",
      "mil li",
      "nom bre",
      "pra ti",
      "struc tures",
      "inf lu",
      "inf lation",
      "venu es",
      "avant age",
      "justi ce",
      "dÃ©mocra tes",
      "cam p",
      "pouv ant",
      "Ã©le cto",
      "Ã©conom ique",
      "inform ation",
      "pris on",
      "dÃ©velop pement",
      "conf ron",
      "dem ment",
      "lÃ©gi ti",
      "tenu es",
      "adres ser",
      "Ã©tab lis",
      "intÃ©rÃª ts",
      "bÃ©nÃ©fi ci",
      "gro s",
      "plan i",
      "Ã©val uation",
      "envis ager",
      "pren ant",
      "europÃ© ens",
      "appu i",
      "assur ance",
      "annon ce",
      "harmon iser",
      "fourn it",
      "Åĵu v",
      "cre ts",
      "fran Ã§",
      "iÃ¨me ment",
      "sÃ» re",
      "satis fais",
      "Ã©ner gie",
      "Ã©larg issement",
      "initi ative",
      "rab lement",
      "itali e",
      "simp li",
      "terr or",
      "ambi ti",
      "instru ment",
      "commen cer",
      "lors qu",
      "ave c",
      "cin q",
      "cito yens",
      "dy nam",
      "fai bles",
      "gh an",
      "grou p",
      "hy po",
      "idÃ© o",
      "ster dam",
      "vÃ©r it",
      "indus tri",
      "pron on",
      "quis ition",
      "temp s",
      "condi tion",
      "dimin u",
      "abou ti",
      "propor tionn",
      "insta urer",
      "sug gÃ©",
      "accro Ã®tre",
      "atif s",
      "bud gÃ©",
      "particu li",
      "sign al",
      "mÃª mes",
      "Ã« l",
      "conva inc",
      "rÃ©fu gi",
      "perti nent",
      "discrimin ation",
      "cru ci",
      "cara ctÃ©",
      "af ghan",
      "mau v",
      "pales tini",
      "sto ck",
      "relig ie",
      "apparti ent",
      "assemb lÃ©e",
      "luxemb our",
      "manif es",
      "mÃ©th o",
      "phÃ©n om",
      "doulou re",
      "a h",
      "a in",
      "a te",
      "a ur",
      "a se",
      "a vo",
      "a Ã®",
      "a ines",
      "a venir",
      "a Ã©ri",
      "a frique",
      "b b",
      "b om",
      "b ai",
      "b ag",
      "b us",
      "b lo",
      "b ais",
      "b lan",
      "b os",
      "b rÃ¨",
      "c d",
      "c le",
      "c te",
      "c ant",
      "c end",
      "c ations",
      "c ence",
      "c lan",
      "c ture",
      "c tÃ©s",
      "c Ã¨s",
      "c ret",
      "c aus",
      "d al",
      "d au",
      "d el",
      "d res",
      "d av",
      "d Ã»",
      "d its",
      "d observa",
      "e au",
      "e til",
      "e tte",
      "f e",
      "f ou",
      "f ar",
      "f al",
      "f rÃ©",
      "f as",
      "f lo",
      "f ro",
      "f ont",
      "f aire",
      "f os",
      "f ru",
      "f em",
      "f aud",
      "g s",
      "g ou",
      "g al",
      "g ation",
      "g om",
      "g el",
      "g il",
      "g enti",
      "g ali",
      "g ypte",
      "h e",
      "h Ã©",
      "h en",
      "h an",
      "h it",
      "h ist",
      "h os",
      "h ol",
      "h abil",
      "i k",
      "i x",
      "i en",
      "i le",
      "i li",
      "i der",
      "i ers",
      "i vent",
      "i dÃ©e",
      "j ai",
      "j ac",
      "j ad",
      "j eux",
      "k e",
      "k h",
      "k en",
      "k in",
      "k is",
      "l Ã©s",
      "l ai",
      "l ap",
      "l lement",
      "l era",
      "l lar",
      "l inst",
      "l its",
      "l omÃ©",
      "m ant",
      "m Ã¨",
      "m us",
      "m ins",
      "m ait",
      "m ad",
      "m un",
      "m age",
      "m Ã¨ne",
      "n d",
      "n y",
      "n an",
      "n ar",
      "n ai",
      "n ations",
      "n ob",
      "n isation",
      "n isme",
      "n ari",
      "n exis",
      "o o",
      "o te",
      "o les",
      "o tes",
      "o ir",
      "o lement",
      "o lig",
      "o tan",
      "o graph",
      "p n",
      "p ti",
      "p Ã©s",
      "p ter",
      "p les",
      "p lo",
      "p un",
      "p ue",
      "p ire",
      "p lon",
      "p lÃ©ment",
      "r us",
      "r itÃ©",
      "r end",
      "r Ã´",
      "r oph",
      "s c",
      "s in",
      "s it",
      "s te",
      "s our",
      "s la",
      "s ad",
      "s ens",
      "s ans",
      "s ite",
      "s cÃ©",
      "s inc",
      "s eng",
      "s pec",
      "s itu",
      "t y",
      "t ch",
      "t ai",
      "t ter",
      "t us",
      "t as",
      "t ob",
      "t ants",
      "t ables",
      "t Ãªte",
      "t Ã´t",
      "t tig",
      "u v",
      "u vre",
      "u ffis",
      "u kra",
      "v d",
      "v au",
      "v ag",
      "v ul",
      "v Ãª",
      "v ite",
      "v ali",
      "v atoire",
      "w at",
      "x iste",
      "x Ã©n",
      "y e",
      "y le",
      "y ons",
      "y mes",
      "y enne",
      "z im",
      "z vous",
      "Ã ¡",
      "Å ¡",
      "Ã© en",
      "Ã© li",
      "Ã© ter",
      "Ã© man",
      "Ã© ta",
      "Ã© pi",
      "Ã© cr",
      "Ã© vÃ©",
      "Ã© lab",
      "Ã© rÃ©s",
      "Ã© vit",
      "Ã© viter",
      "Ã© clair",
      "Ã© poque",
      "Ã© pouvant",
      "en ri",
      "en su",
      "en fer",
      "en reg",
      "en contre",
      "en cie",
      "en regis",
      "en veloppe",
      "on d",
      "on g",
      "on om",
      "on telles",
      "es se",
      "es pa",
      "es til",
      "es cal",
      "er t",
      "er ons",
      "er res",
      "er Ã§",
      "er ba",
      "ti le",
      "ti di",
      "ti ne",
      "ti Ã¨re",
      "ent re",
      "ent end",
      "ent rer",
      "ent rÃ©e",
      "ent endre",
      "ent endu",
      "ent hou",
      "an tis",
      "an kara",
      "in a",
      "in ci",
      "in com",
      "in tr",
      "in fi",
      "in ap",
      "in vo",
      "in inter",
      "in cu",
      "in don",
      "in fÃ©",
      "in ions",
      "in vit",
      "in hÃ©r",
      "in contes",
      "in admis",
      "in quiÃ©tu",
      "in ien",
      "is ra",
      "is tÃ©",
      "is ie",
      "is tiques",
      "is lam",
      "is tence",
      "re b",
      "re m",
      "re mis",
      "re Ã§",
      "re ira",
      "re connais",
      "re prÃ©sente",
      "re vÃª",
      "ra ch",
      "ra ire",
      "ra ux",
      "ra til",
      "ra bilitÃ©",
      "ra ires",
      "ra yer",
      "it an",
      "it age",
      "le ad",
      "le urs",
      "le mp",
      "le mb",
      "le ction",
      "pr ise",
      "pr ises",
      "qu en",
      "qu in",
      "qu ar",
      "qu ons",
      "qu ie",
      "qu ait",
      "qu un",
      "qu elle",
      "qu able",
      "qu Ã©es",
      "qu asi",
      "ou tre",
      "or ie",
      "ar z",
      "ar ti",
      "ar ch",
      "ar om",
      "ar ro",
      "ar ma",
      "ar der",
      "ar itÃ©s",
      "ar iste",
      "ar ds",
      "li e",
      "li on",
      "li ra",
      "li ation",
      "li quer",
      "dÃ© o",
      "dÃ© ment",
      "dÃ© sÃ©",
      "dÃ© man",
      "dÃ© cou",
      "dÃ© pu",
      "dÃ© fic",
      "dÃ© lic",
      "dÃ© gra",
      "dÃ© mis",
      "dÃ© cent",
      "dÃ© lÃ©g",
      "dÃ© tat",
      "dÃ© loc",
      "dÃ© tour",
      "dÃ© mont",
      "dÃ© cla",
      "dÃ© bou",
      "dÃ© vas",
      "dÃ© cen",
      "te ction",
      "te use",
      "con se",
      "con vi",
      "con vo",
      "con fon",
      "con tro",
      "con vers",
      "con fÃ©r",
      "con duc",
      "ur ant",
      "ur Ã©e",
      "ur era",
      "ur gent",
      "ur ani",
      "al p",
      "al ar",
      "al tern",
      "rÃ© p",
      "rÃ© ch",
      "rÃ© se",
      "rÃ© comp",
      "rÃ© gu",
      "rÃ© cep",
      "rÃ© publi",
      "rÃ© cla",
      "rÃ© tab",
      "rÃ© flex",
      "rÃ© pan",
      "rÃ© tiens",
      "rÃ© volution",
      "ch Ã©",
      "ch ent",
      "ch ant",
      "ch Ã©s",
      "ch ap",
      "ch am",
      "ch ance",
      "ch elle",
      "ch era",
      "ch Ã´",
      "ch ron",
      "ch ino",
      "ch rÃ©tiens",
      "om c",
      "om ph",
      "di g",
      "di r",
      "di x",
      "di tion",
      "di rais",
      "di ffic",
      "ri l",
      "ri en",
      "ri er",
      "ri di",
      "ri que",
      "ri Ã¨res",
      "ri Ã¨me",
      "ce ment",
      "ce de",
      "ce lu",
      "ce lle",
      "ce ux",
      "ce lles",
      "au tÃ©",
      "au cu",
      "au che",
      "au ration",
      "au rait",
      "au raient",
      "ai dant",
      "se l",
      "se in",
      "se con",
      "se ul",
      "se urs",
      "se ma",
      "se mp",
      "se crÃ©",
      "se ignement",
      "ac le",
      "ac ts",
      "ac teur",
      "ac tivement",
      "si l",
      "si m",
      "si x",
      "si as",
      "si que",
      "si ves",
      "si bil",
      "si ez",
      "si mul",
      "si fication",
      "si vement",
      "si eurs",
      "ab sor",
      "ab ordÃ©",
      "ab orde",
      "Ã¨ le",
      "Ã¨ les",
      "Ã¨ ve",
      "Ã¨ ge",
      "Ã¨ lement",
      "Ã¨ tre",
      "Ã¨ tent",
      "ci ce",
      "ci bles",
      "at es",
      "at er",
      "at tirer",
      "de urs",
      "de voir",
      "de main",
      "de viend",
      "res ter",
      "res pe",
      "res ta",
      "res titu",
      "ter ri",
      "tÃ© n",
      "tÃ© mo",
      "ag it",
      "ag Ã©e",
      "ag ir",
      "ag ence",
      "ag ers",
      "ag nes",
      "ag issant",
      "us age",
      "pro ven",
      "pro che",
      "pro pos",
      "pro vis",
      "pro lon",
      "pro poser",
      "pro pose",
      "pro hi",
      "pro clam",
      "pro tection",
      "com por",
      "com prom",
      "com porte",
      "com prend",
      "po lon",
      "po ints",
      "tr on",
      "tr an",
      "tr om",
      "tr ouver",
      "fi l",
      "fi li",
      "fi able",
      "fi lle",
      "fi ables",
      "vi c",
      "vi re",
      "vi cti",
      "vi lle",
      "vi vre",
      "ex i",
      "ex per",
      "ex clus",
      "ex trÃ©",
      "ex trÃªme",
      "me z",
      "me urs",
      "as si",
      "am user",
      "am pleur",
      "am sterdam",
      "que ment",
      "lo g",
      "lo re",
      "lo ie",
      "lo tage",
      "tu elle",
      "tu ration",
      "ve ill",
      "ve mbre",
      "im ag",
      "im il",
      "im age",
      "im pu",
      "im pose",
      "im Ãªme",
      "im pression",
      "im migration",
      "im mÃ©dia",
      "im porta",
      "op ti",
      "op tion",
      "op or",
      "op pos",
      "op pose",
      "op Ã©rer",
      "op inion",
      "par le",
      "par ler",
      "par tis",
      "par cours",
      "par tout",
      "ul er",
      "ul ent",
      "ul tÃ©",
      "ul tra",
      "ul tes",
      "ul aire",
      "ul aires",
      "itÃ© es",
      "vo ie",
      "vo ire",
      "vo ient",
      "vo lon",
      "vo ls",
      "du re",
      "du mp",
      "du tilis",
      "ten dre",
      "ten ez",
      "ten sitÃ©",
      "ins Ã¨",
      "ins pe",
      "ins cr",
      "ins ist",
      "ins ister",
      "ins uffis",
      "our s",
      "ff Ã©r",
      "ff rent",
      "por teur",
      "por tera",
      "ser ons",
      "ser vi",
      "su c",
      "su re",
      "su ff",
      "su je",
      "su asi",
      "la ff",
      "la dop",
      "ie z",
      "tra tion",
      "tra gÃ©",
      "tra fic",
      "tra Ã®",
      "tra itÃ©s",
      "tra vers",
      "ver ser",
      "ver ts",
      "ver ont",
      "ver sÃ©",
      "ver sement",
      "lu er",
      "lu eur",
      "co di",
      "co de",
      "co lle",
      "co lon",
      "co ol",
      "co Ã¯",
      "co ton",
      "co opÃ©ra",
      "co finance",
      "ad ress",
      "ad hÃ©r",
      "mo i",
      "mo t",
      "mo is",
      "mo ment",
      "mo ins",
      "mo des",
      "mo bil",
      "prÃ© f",
      "prÃ© hen",
      "per mis",
      "per spe",
      "pe ur",
      "ro vi",
      "ro so",
      "ais ons",
      "pÃ© rÃ©e",
      "un es",
      "un itÃ©",
      "un ion",
      "un ani",
      "un anim",
      "for esti",
      "sou ver",
      "sou stra",
      "end a",
      "end ra",
      "ge ons",
      "ma ch",
      "ma ins",
      "ma teur",
      "ma Ã®tre",
      "dis ant",
      "dis poser",
      "dis cus",
      "cons ens",
      "cons ist",
      "cons truc",
      "cons oli",
      "ces t",
      "min u",
      "min or",
      "min ist",
      "so ient",
      "sÃ© par",
      "sÃ© pa",
      "gÃ© ri",
      "gÃ© nit",
      "gÃ© ograph",
      "ven ons",
      "ven ez",
      "acc u",
      "acc us",
      "acc ises",
      "acc user",
      "acc Ã©lÃ©",
      "acc ordÃ©",
      "man dÃ©",
      "man ge",
      "mÃ© ment",
      "mÃ© trie",
      "mÃ© diterranÃ©",
      "inter viend",
      "inter institutionn",
      "inter gouvernement",
      "aire ment",
      "av ais",
      "av Ã¨re",
      "av aient",
      "ord onner",
      "comp lÃ©",
      "comp ens",
      "comp lex",
      "comp ara",
      "comp tez",
      "ob tenir",
      "ob arom",
      "ta tive",
      "tri b",
      "tri ces",
      "tri omph",
      "gi de",
      "gi ques",
      "gi bles",
      "lan cer",
      "eur os",
      "eur omÃ©",
      "Ã©r opor",
      "cu les",
      "ig nent",
      "ig nor",
      "no ci",
      "no tation",
      "to ta",
      "ni Ã¨re",
      "che f",
      "che urs",
      "enti s",
      "enti Ã¨re",
      "enti els",
      "ass ent",
      "ass au",
      "ass ister",
      "ass assin",
      "mar qu",
      "mar Ã©e",
      "mar iti",
      "vis e",
      "vis ions",
      "cou v",
      "cou vre",
      "dent es",
      "fin land",
      "alis Ã©",
      "alis Ã©s",
      "des poir",
      "prÃ©s identi",
      "comm iss",
      "der ons",
      "ves tissement",
      "dic ation",
      "dic ap",
      "dic tions",
      "cl ass",
      "cl Ã´",
      "pa que",
      "pu re",
      "cti vitÃ©",
      "fon d",
      "fon ds",
      "aut onom",
      "da vi",
      "da frica",
      "mon te",
      "mon trer",
      "mon opo",
      "st an",
      "st al",
      "st ad",
      "pri v",
      "pri vi",
      "pri vÃ©",
      "ph Ã©ri",
      "ran ces",
      "ouv el",
      "ouv rir",
      "lib an",
      "lib Ã©rÃ©",
      "lic able",
      "trans mis",
      "port ance",
      "bi omÃ©",
      "gu in",
      "gu Ã©e",
      "gu ider",
      "Ã® ne",
      "tis tiques",
      "iss ait",
      "cri tique",
      "cri vent",
      "cri ption",
      "gra du",
      "mis tes",
      "pi ces",
      "pi ration",
      "pi rations",
      "titu de",
      "dÃ©p lor",
      "oc cul",
      "oc cident",
      "oc troi",
      "lin g",
      "lin gu",
      "tique tage",
      "lig ence",
      "cep t",
      "form ations",
      "do h",
      "do llar",
      "els on",
      "cul teurs",
      "mi x",
      "ren con",
      "ren ation",
      "ren ouvel",
      "Ã§ onner",
      "Ã©ra it",
      "Ã©ra di",
      "Ã©ra tions",
      "emp i",
      "emp le",
      "emp lois",
      "emp Ãªcher",
      "vÃ© hi",
      "quer ait",
      "conn ex",
      "conn ue",
      "cent s",
      "car bur",
      "crÃ© e",
      "jus te",
      "organ e",
      "organ es",
      "ali ment",
      "bil isation",
      "hu it",
      "hu mili",
      "lab at",
      "men se",
      "ron ter",
      "lÃ©g Ã¨re",
      "fer mÃ©",
      "fer rovi",
      "lÃ¨ ve",
      "val or",
      "anti cip",
      "inc itants",
      "inc roy",
      "lex cell",
      "soci aux",
      "don ne",
      "sur veill",
      "tur er",
      "indi rec",
      "indi ffÃ©r",
      "appro vision",
      "ffi ce",
      "gar der",
      "gar antis",
      "sy mp",
      "sy st",
      "eng age",
      "eng lob",
      "exp an",
      "exp ul",
      "din g",
      "din trodu",
      "din flu",
      "lon g",
      "pour rions",
      "tin ation",
      "uni vers",
      "den ces",
      "den regis",
      "dou te",
      "dou ane",
      "fra p",
      "fra gil",
      "tou te",
      "pres se",
      "lim it",
      "lim itÃ©",
      "dÃ©f end",
      "dÃ©f avor",
      "dÃ©f ense",
      "imp lication",
      "imp Ã´t",
      "imp act",
      "cor po",
      "cor rec",
      "cor ps",
      "sus pec",
      "sus cepti",
      "repr ise",
      "para l",
      "para vant",
      "para graph",
      "jour s",
      "jour nement",
      "mul tination",
      "ru th",
      "Ã» t",
      "inst all",
      "inst alle",
      "inst aller",
      "eux mÃªmes",
      "amÃ©li ora",
      "fa Ã§onner",
      "fu sion",
      "hon or",
      "hon gro",
      "jo se",
      "jo indre",
      "pen se",
      "pen ser",
      "pen sion",
      "tionn aires",
      "tionn elles",
      "contra ire",
      "accep table",
      "gue ur",
      "nation ale",
      "tat aires",
      "Ã©ch elle",
      "Ã©ch ang",
      "ress or",
      "ress ortis",
      "voy ez",
      "col om",
      "col lab",
      "col labor",
      "adop tion",
      "adop tÃ©",
      "main d",
      "utilis e",
      "utilis er",
      "utilis ateurs",
      "ban de",
      "bar re",
      "clu b",
      "Ã¢ ge",
      "prom ou",
      "prom ouv",
      "all ou",
      "aus si",
      "aus tra",
      "opÃ© ration",
      "obser ve",
      "obser ver",
      "obser vation",
      "autor is",
      "considÃ© rer",
      "considÃ© rÃ©e",
      "aff aire",
      "aff aibli",
      "be t",
      "effe t",
      "effe ctive",
      "iti ative",
      "mal a",
      "pla te",
      "son d",
      "sch mid",
      "esp Ã¨",
      "esp agne",
      "ref lÃ©",
      "ref lÃ¨",
      "atta que",
      "dev rions",
      "exam en",
      "appr endre",
      "sup porter",
      "sup plÃ©ment",
      "pÃ©ri o",
      "pÃ©ri phÃ©ri",
      "constitu tion",
      "intÃ©g rer",
      "spÃ©ci fic",
      "spÃ©ci fique",
      "ba se",
      "dom mag",
      "ira k",
      "lh y",
      "lh om",
      "lor ig",
      "ora ire",
      "ora teurs",
      "off er",
      "off re",
      "off ri",
      "off rir",
      "Ã©tu de",
      "est Ãłdire",
      "concer t",
      "dire ctive",
      "prof iter",
      "institu t",
      "dÃ©pend ance",
      "organis mes",
      "identi tÃ©",
      "amÃ©lior ent",
      "hÃ©r itage",
      "mat Ã©ri",
      "mat rices",
      "tour isme",
      "Ã¯ dj",
      "Ã©qui pe",
      "Ã©qui libre",
      "ende ments",
      "anci en",
      "rais onn",
      "ito ires",
      "orient er",
      "ari at",
      "dÃ©fin ition",
      "char ge",
      "sex uels",
      "cir cons",
      "deman der",
      "import ance",
      "duc tions",
      "permet tr",
      "minis tÃ©ri",
      "explo iter",
      "bon ne",
      "bre ve",
      "cat Ã©g",
      "gran d",
      "gran de",
      "hab itants",
      "pou voir",
      "pou vez",
      "Ã©vo lution",
      "entrepr en",
      "entrepr ise",
      "entrepr ises",
      "inf e",
      "ras semb",
      "leur o",
      "accomp li",
      "compÃ© tent",
      "exer ce",
      "exer cer",
      "exer cice",
      "associ er",
      "peu t",
      "mÃ©di aire",
      "dÃ©mocra tique",
      "cur itÃ©",
      "cur rence",
      "dro it",
      "dro ite",
      "ga z",
      "mig rants",
      "nu mÃ©",
      "nu clÃ©",
      "pouv ait",
      "vra i",
      "Ã©conom ie",
      "Ã©conom iques",
      "encoura ger",
      "encoura gent",
      "inves tis",
      "inves tissement",
      "inform ations",
      "prin ci",
      "quo i",
      "conf ront",
      "rÃ©gi ons",
      "actu el",
      "dem imil",
      "tÃ©lÃ© communi",
      "prob lÃ©",
      "prob lÃ¨",
      "viend rait",
      "exemp le",
      "lÃ©gi fÃ©r",
      "prÃ©occu per",
      "constru ction",
      "obje ctif",
      "obje ctifs",
      "oblig ations",
      "Ã©tab lir",
      "prÃ©si dent",
      "prÃ©si dente",
      "culture lle",
      "larg issement",
      "bÃ©nÃ©fi cier",
      "cal cul",
      "pl us",
      "san ction",
      "san gu",
      "san itaires",
      "Ã©tr ange",
      "Ã©val uer",
      "inno v",
      "inno vation",
      "remp lac",
      "radic ation",
      "dÃ©ci dÃ©",
      "contin uer",
      "alli Ã©s",
      "alli ance",
      "auto suffis",
      "civi lis",
      "tÃ©rieur es",
      "ussi e",
      "comb us",
      "trouv ons",
      "europÃ© enne",
      "communi quer",
      "libÃ©ra le",
      "libÃ©ra lis",
      "amÃ©ri que",
      "annon cer",
      "examin Ã©e",
      "travail ler",
      "connaiss ance",
      "fourn isse",
      "adÃ© qu",
      "adÃ© quat",
      "bri e",
      "effor ts",
      "ho olig",
      "heure usement",
      "sÃ» r",
      "Ã©qu it",
      "Ã©co logique",
      "Ã©ner gÃ©",
      "Ã©larg ir",
      "anim aux",
      "inten tion",
      "reven di",
      "limin ation",
      "cho se",
      "abs ent",
      "abs ence",
      "agri culture",
      "exig er",
      "exig ences",
      "tolÃ© rance",
      "commen cÃ©",
      "human itÃ©",
      "appropri Ã©",
      "effectu er",
      "rÃ¨g lement",
      "entraÃ® ner",
      "ay ant",
      "bes o",
      "effic acitÃ©",
      "effic ace",
      "fam ili",
      "hom me",
      "juri dique",
      "pas ser",
      "pÃª cher",
      "slo v",
      "slo va",
      "vÃ©r itÃ©",
      "Ã©lÃ© ments",
      "Ã©lo ge",
      "infra ction",
      "indus trie",
      "reli gi",
      "quat riÃ¨me",
      "oubli er",
      "tex te",
      "condi tions",
      "content s",
      "dimin uer",
      "respons abil",
      "propor tion",
      "vig il",
      "exist ante",
      "adap ter",
      "peti te",
      "constat er",
      "march an",
      "bud ge",
      "inclu sion",
      "rÃ©sul tat",
      "garanti e",
      "techno logies",
      "affir mÃ©",
      "affir mation",
      "aujourd hui",
      "br itan",
      "fron tiÃ¨res",
      "gri m",
      "hor s",
      "nouv elle",
      "pie d",
      "Ã©vent u",
      "Ã©duc ation",
      "enf ant",
      "analy se",
      "indu bit",
      "recom mand",
      "rai til",
      "ralis me",
      "prouv ent",
      "quali fiÃ©s",
      "dÃ©mon trer",
      "rÃ©pÃ© ter",
      "rÃ©fÃ©r endu",
      "chy pri",
      "activ itÃ©s",
      "propri Ã©t",
      "trou ve",
      "expÃ©ri ence",
      "extÃ©rieur es",
      "opportu n",
      "opportu nitÃ©",
      "vois in",
      "coord onner",
      "perpÃ© t",
      "accueil lir",
      "mÃ©dic a",
      "not amment",
      "occa sion",
      "cepti cisme",
      "incap acitÃ©",
      "judi ci",
      "honora bles",
      "honora ble",
      "Ã©nor me",
      "paci fique",
      "volont aire",
      "program me",
      "africa ine",
      "feu ille",
      "gas p",
      "his toire",
      "ola f",
      "sti mul",
      "sci enti",
      "sins crit",
      "vacc in",
      "Ã©gar d",
      "enva h",
      "espr it",
      "essa y",
      "remer cie",
      "artic le",
      "dÃ©ce v",
      "dÃ©bar ras",
      "tem po",
      "conci liation",
      "confi r",
      "conver gence",
      "allÃ© gement",
      "rÃ©f lÃ©",
      "divers itÃ©",
      "autri chi",
      "aspec ts",
      "veu ille",
      "impÃ© ra",
      "pertur b",
      "maÃ® tres",
      "accent uer",
      "toxi citÃ©",
      "bureau cra",
      "autom ne",
      "stat u",
      "dos si",
      "docu ment",
      "approb ation",
      "systÃ© matique",
      "consid Ã¨re",
      "signi fic",
      "plais ir",
      "candid at",
      "preu ves",
      "ophob ie",
      "influ en",
      "inflation n",
      "Åĵuv rer",
      "hypo cr",
      "caractÃ© ris",
      "luxembour ge",
      "bai g",
      "blo quÃ©",
      "bos nie",
      "cend ants",
      "han dicap",
      "plo itation",
      "scÃ© nari",
      "tai wan",
      "vul nÃ©",
      "zim bab",
      "Ã©ta y",
      "enreg ist",
      "espa ce",
      "escal ade",
      "erba Ã¯dj",
      "enthou sias",
      "intr insÃ¨",
      "inap erÃ§",
      "ininter rom",
      "indon Ã©s",
      "infÃ© rieur",
      "lead ers",
      "dÃ©sÃ© qui",
      "dÃ©man te",
      "rÃ©ch au",
      "rÃ©gu li",
      "chap it",
      "provis o",
      "exper ts",
      "dump ing",
      "inspe ction",
      "coÃ¯ nci",
      "unanim itÃ©",
      "consens us",
      "interviend ront",
      "obarom Ã¨tre",
      "euromÃ© diterranÃ©",
      "surveill ance",
      "amÃ©liora tions",
      "pÃ©riphÃ©ri ques",
      "erbaÃ¯dj an",
      "enthousias me"
    ]
  }
}