{
  "version": "1.0",
  "truncation": null,
  "padding": null,
  "added_tokens": [
    {
      "id": 0,
      "content": "[PAD]",
      "single_word": false,
      "lstrip": false,
      "rstrip": false,
      "normalized": false,
      "special": true
    },
    {
      "id": 1,
      "content": "[CLS]",
      "single_word": false,
      "lstrip": false,
      "rstrip": false,
      "normalized": false,
      "special": true
    },
    {
      "id": 2,
      "content": "[SEP]",
      "single_word": false,
      "lstrip": false,
      "rstrip": false,
      "normalized": false,
      "special": true
    },
    {
      "id": 3,
      "content": "[MASK]",
      "single_word": false,
      "lstrip": false,
      "rstrip": false,
      "normalized": false,
      "special": true
    },
    {
      "id": 4,
      "content": "[UNK]",
      "single_word": false,
      "lstrip": false,
      "rstrip": false,
      "normalized": false,
      "special": true
    }
  ],
  "normalizer": null,
  "pre_tokenizer": {
    "type": "ByteLevel",
    "add_prefix_space": false,
    "trim_offsets": true,
    "use_regex": true
  },
  "post_processor": {
    "type": "ByteLevel",
    "add_prefix_space": true,
    "trim_offsets": false,
    "use_regex": true
  },
  "decoder": {
    "type": "ByteLevel",
    "add_prefix_space": true,
    "trim_offsets": true,
    "use_regex": true
  },
  "model": {
    "type": "BPE",
    "dropout": null,
    "unk_token": null,
    "continuing_subword_prefix": null,
    "end_of_word_suffix": null,
    "fuse_unk": false,
    "byte_fallback": false,
    "vocab": {
      "[PAD]": 0,
      "[CLS]": 1,
      "[SEP]": 2,
      "[MASK]": 3,
      "[UNK]": 4,
      "!": 5,
      "\"": 6,
      "#": 7,
      "$": 8,
      "%": 9,
      "&": 10,
      "'": 11,
      "(": 12,
      ")": 13,
      "*": 14,
      "+": 15,
      ",": 16,
      "-": 17,
      ".": 18,
      "/": 19,
      "0": 20,
      "1": 21,
      "2": 22,
      "3": 23,
      "4": 24,
      "5": 25,
      "6": 26,
      "7": 27,
      "8": 28,
      "9": 29,
      ":": 30,
      ";": 31,
      "<": 32,
      "=": 33,
      ">": 34,
      "?": 35,
      "@": 36,
      "A": 37,
      "B": 38,
      "C": 39,
      "D": 40,
      "E": 41,
      "F": 42,
      "G": 43,
      "H": 44,
      "I": 45,
      "J": 46,
      "K": 47,
      "L": 48,
      "M": 49,
      "N": 50,
      "O": 51,
      "P": 52,
      "Q": 53,
      "R": 54,
      "S": 55,
      "T": 56,
      "U": 57,
      "V": 58,
      "W": 59,
      "X": 60,
      "Y": 61,
      "Z": 62,
      "[": 63,
      "\\": 64,
      "]": 65,
      "^": 66,
      "_": 67,
      "`": 68,
      "a": 69,
      "b": 70,
      "c": 71,
      "d": 72,
      "e": 73,
      "f": 74,
      "g": 75,
      "h": 76,
      "i": 77,
      "j": 78,
      "k": 79,
      "l": 80,
      "m": 81,
      "n": 82,
      "o": 83,
      "p": 84,
      "q": 85,
      "r": 86,
      "s": 87,
      "t": 88,
      "u": 89,
      "v": 90,
      "w": 91,
      "x": 92,
      "y": 93,
      "z": 94,
      "{": 95,
      "|": 96,
      "}": 97,
      "~": 98,
      "¡": 99,
      "¢": 100,
      "£": 101,
      "¤": 102,
      "¥": 103,
      "¦": 104,
      "§": 105,
      "¨": 106,
      "©": 107,
      "ª": 108,
      "«": 109,
      "¬": 110,
      "®": 111,
      "¯": 112,
      "°": 113,
      "±": 114,
      "²": 115,
      "³": 116,
      "´": 117,
      "µ": 118,
      "¶": 119,
      "·": 120,
      "¸": 121,
      "¹": 122,
      "º": 123,
      "»": 124,
      "¼": 125,
      "½": 126,
      "¾": 127,
      "¿": 128,
      "À": 129,
      "Á": 130,
      "Â": 131,
      "Ã": 132,
      "Ä": 133,
      "Å": 134,
      "Æ": 135,
      "Ç": 136,
      "È": 137,
      "É": 138,
      "Ê": 139,
      "Ë": 140,
      "Ì": 141,
      "Í": 142,
      "Î": 143,
      "Ï": 144,
      "Ð": 145,
      "Ñ": 146,
      "Ò": 147,
      "Ó": 148,
      "Ô": 149,
      "Õ": 150,
      "Ö": 151,
      "×": 152,
      "Ø": 153,
      "Ù": 154,
      "Ú": 155,
      "Û": 156,
      "Ü": 157,
      "Ý": 158,
      "Þ": 159,
      "ß": 160,
      "à": 161,
      "á": 162,
      "â": 163,
      "ã": 164,
      "ä": 165,
      "å": 166,
      "æ": 167,
      "ç": 168,
      "è": 169,
      "é": 170,
      "ê": 171,
      "ë": 172,
      "ì": 173,
      "í": 174,
      "î": 175,
      "ï": 176,
      "ð": 177,
      "ñ": 178,
      "ò": 179,
      "ó": 180,
      "ô": 181,
      "õ": 182,
      "ö": 183,
      "÷": 184,
      "ø": 185,
      "ù": 186,
      "ú": 187,
      "û": 188,
      "ü": 189,
      "ý": 190,
      "þ": 191,
      "ÿ": 192,
      "Ā": 193,
      "ā": 194,
      "Ă": 195,
      "ă": 196,
      "Ą": 197,
      "ą": 198,
      "Ć": 199,
      "ć": 200,
      "Ĉ": 201,
      "ĉ": 202,
      "Ċ": 203,
      "ċ": 204,
      "Č": 205,
      "č": 206,
      "Ď": 207,
      "ď": 208,
      "Đ": 209,
      "đ": 210,
      "Ē": 211,
      "ē": 212,
      "Ĕ": 213,
      "ĕ": 214,
      "Ė": 215,
      "ė": 216,
      "Ę": 217,
      "ę": 218,
      "Ě": 219,
      "ě": 220,
      "Ĝ": 221,
      "ĝ": 222,
      "Ğ": 223,
      "ğ": 224,
      "Ġ": 225,
      "ġ": 226,
      "Ģ": 227,
      "ģ": 228,
      "Ĥ": 229,
      "ĥ": 230,
      "Ħ": 231,
      "ħ": 232,
      "Ĩ": 233,
      "ĩ": 234,
      "Ī": 235,
      "ī": 236,
      "Ĭ": 237,
      "ĭ": 238,
      "Į": 239,
      "į": 240,
      "İ": 241,
      "ı": 242,
      "Ĳ": 243,
      "ĳ": 244,
      "Ĵ": 245,
      "ĵ": 246,
      "Ķ": 247,
      "ķ": 248,
      "ĸ": 249,
      "Ĺ": 250,
      "ĺ": 251,
      "Ļ": 252,
      "ļ": 253,
      "Ľ": 254,
      "ľ": 255,
      "Ŀ": 256,
      "ŀ": 257,
      "Ł": 258,
      "ł": 259,
      "Ń": 260,
      "re": 261,
      "on": 262,
      "en": 263,
      "ri": 264,
      "ti": 265,
      "ta": 266,
      "te": 267,
      "ra": 268,
      "in": 269,
      "to": 270,
      "li": 271,
      "zi": 272,
      "co": 273,
      "an": 274,
      "si": 275,
      "de": 276,
      "le": 277,
      "zion": 278,
      "di": 279,
      "ca": 280,
      "ro": 281,
      "ci": 282,
      "la": 283,
      "men": 284,
      "er": 285,
      "âĢ": 286,
      "con": 287,
      "zione": 288,
      "es": 289,
      "âĢĻ": 290,
      "mo": 291,
      "or": 292,
      "al": 293,
      "gi": 294,
      "so": 295,
      "do": 296,
      "vi": 297,
      "un": 298,
      "ch": 299,
      "va": 300,
      "mp": 301,
      "ma": 302,
      "za": 303,
      "bi": 304,
      "se": 305,
      "pa": 306,
      "vo": 307,
      "no": 308,
      "Ãł": 309,
      "lo": 310,
      "tra": 311,
      "sa": 312,
      "pre": 313,
      "tu": 314,
      "mi": 315,
      "da": 316,
      "pro": 317,
      "fi": 318,
      "ce": 319,
      "ten": 320,
      "del": 321,
      "mente": 322,
      "po": 323,
      "pe": 324,
      "su": 325,
      "ve": 326,
      "sta": 327,
      "me": 328,
      "sti": 329,
      "ga": 330,
      "qu": 331,
      "tti": 332,
      "ne": 333,
      "ssi": 334,
      "pi": 335,
      "tÃł": 336,
      "one": 337,
      "ter": 338,
      "chi": 339,
      "na": 340,
      "mento": 341,
      "cu": 342,
      "ina": 343,
      "ar": 344,
      "du": 345,
      "lu": 346,
      "ac": 347,
      "tto": 348,
      "tta": 349,
      "zza": 350,
      "ano": 351,
      "go": 352,
      "st": 353,
      "ali": 354,
      "ran": 355,
      "zioni": 356,
      "amo": 357,
      "ini": 358,
      "comp": 359,
      "gu": 360,
      "per": 361,
      "ono": 362,
      "enti": 363,
      "for": 364,
      "be": 365,
      "imp": 366,
      "ggi": 367,
      "all": 368,
      "ap": 369,
      "gli": 370,
      "ria": 371,
      "ere": 372,
      "ni": 373,
      "zia": 374,
      "col": 375,
      "ani": 376,
      "cor": 377,
      "dell": 378,
      "por": 379,
      "gra": 380,
      "ente": 381,
      "fa": 382,
      "ru": 383,
      "uni": 384,
      "ver": 385,
      "bili": 386,
      "ven": 387,
      "tro": 388,
      "dis": 389,
      "au": 390,
      "tori": 391,
      "che": 392,
      "oni": 393,
      "ff": 394,
      "bo": 395,
      "as": 396,
      "man": 397,
      "ris": 398,
      "ge": 399,
      "tte": 400,
      "fica": 401,
      "enza": 402,
      "ine": 403,
      "cia": 404,
      "ba": 405,
      "inte": 406,
      "bu": 407,
      "pri": 408,
      "ste": 409,
      "tri": 410,
      "ttu": 411,
      "tan": 412,
      "com": 413,
      "stra": 414,
      "dere": 415,
      "av": 416,
      "cre": 417,
      "sione": 418,
      "par": 419,
      "fe": 420,
      "ll": 421,
      "tare": 422,
      "cono": 423,
      "rÃł": 424,
      "sen": 425,
      "ale": 426,
      "rio": 427,
      "inter": 428,
      "menti": 429,
      "pen": 430,
      "lla": 431,
      "mu": 432,
      "cen": 433,
      "ene": 434,
      "tiva": 435,
      "am": 436,
      "ces": 437,
      "ze": 438,
      "anti": 439,
      "ando": 440,
      "bile": 441,
      "sse": 442,
      "bbe": 443,
      "oc": 444,
      "indi": 445,
      "cri": 446,
      "sci": 447,
      "uro": 448,
      "ino": 449,
      "vol": 450,
      "lle": 451,
      "nu": 452,
      "pu": 453,
      "ser": 454,
      "spe": 455,
      "tato": 456,
      "qui": 457,
      "stru": 458,
      "are": 459,
      "bb": 460,
      "mina": 461,
      "rsi": 462,
      "rare": 463,
      "ssa": 464,
      "sten": 465,
      "uti": 466,
      "chia": 467,
      "ffi": 468,
      "gna": 469,
      "lan": 470,
      "sce": 471,
      "ren": 472,
      "menta": 473,
      "della": 474,
      "sto": 475,
      "rebbe": 476,
      "stan": 477,
      "stitu": 478,
      "ato": 479,
      "cer": 480,
      "rati": 481,
      "alla": 482,
      "tura": 483,
      "ggio": 484,
      "den": 485,
      "gno": 486,
      "op": 487,
      "rato": 488,
      "lica": 489,
      "giu": 490,
      "forma": 491,
      "ron": 492,
      "sca": 493,
      "tras": 494,
      "ranno": 495,
      "mb": 496,
      "sp": 497,
      "uto": 498,
      "alle": 499,
      "zzazione": 500,
      "azione": 501,
      "esi": 502,
      "euro": 503,
      "ori": 504,
      "âĢĿ": 505,
      "ag": 506,
      "clu": 507,
      "tten": 508,
      "razione": 509,
      "colo": 510,
      "lare": 511,
      "ques": 512,
      "fin": 513,
      "mes": 514,
      "tre": 515,
      "rie": 516,
      "mati": 517,
      "vole": 518,
      "fu": 519,
      "lti": 520,
      "mer": 521,
      "mini": 522,
      "rci": 523,
      "smo": 524,
      "sso": 525,
      "spi": 526,
      "cio": 527,
      "segu": 528,
      "nell": 529,
      "aff": 530,
      "fon": 531,
      "lli": 532,
      "chie": 533,
      "denti": 534,
      "gh": 535,
      "gre": 536,
      "remo": 537,
      "tati": 538,
      "tali": 539,
      "lega": 540,
      "contra": 541,
      "ord": 542,
      "logi": 543,
      "presen": 544,
      "medi": 545,
      "glio": 546,
      "occu": 547,
      "ata": 548,
      "ade": 549,
      "can": 550,
      "fo": 551,
      "im": 552,
      "lin": 553,
      "sin": 554,
      "zo": 555,
      "tazione": 556,
      "care": 557,
      "conti": 558,
      "consi": 559,
      "appro": 560,
      "feri": 561,
      "ati": 562,
      "dono": 563,
      "dall": 564,
      "fer": 565,
      "lmente": 566,
      "senti": 567,
      "Ã©": 568,
      "rin": 569,
      "rali": 570,
      "tore": 571,
      "libe": 572,
      "zio": 573,
      "org": 574,
      "mpi": 575,
      "app": 576,
      "assi": 577,
      "gono": 578,
      "gge": 579,
      "min": 580,
      "mbi": 581,
      "pon": 582,
      "ves": 583,
      "val": 584,
      "Ã²": 585,
      "mar": 586,
      "pren": 587,
      "guar": 588,
      "impor": 589,
      "el": 590,
      "gene": 591,
      "ire": 592,
      "endo": 593,
      "tano": 594,
      "car": 595,
      "cato": 596,
      "stri": 597,
      "eren": 598,
      "bilitÃł": 599,
      "tribu": 600,
      "avvi": 601,
      "ffici": 602,
      "ai": 603,
      "amento": 604,
      "cco": 605,
      "gere": 606,
      "regi": 607,
      "ante": 608,
      "diamo": 609,
      "labo": 610,
      "ese": 611,
      "almente": 612,
      "sotto": 613,
      "sare": 614,
      "dare": 615,
      "delle": 616,
      "peri": 617,
      "vere": 618,
      "comuni": 619,
      "aggi": 620,
      "attu": 621,
      "is": 622,
      "llo": 623,
      "ss": 624,
      "sch": 625,
      "uta": 626,
      "tivi": 627,
      "inf": 628,
      "informa": 629,
      "anza": 630,
      "anzia": 631,
      "der": 632,
      "dire": 633,
      "roga": 634,
      "contro": 635,
      "para": 636,
      "tran": 637,
      "veri": 638,
      "ttivo": 639,
      "ranti": 640,
      "impe": 641,
      "intere": 642,
      "tando": 643,
      "ambi": 644,
      "cessi": 645,
      "serva": 646,
      "ele": 647,
      "fini": 648,
      "ger": 649,
      "gni": 650,
      "mani": 651,
      "rre": 652,
      "rica": 653,
      "tive": 654,
      "tata": 655,
      "rap": 656,
      "rano": 657,
      "desi": 658,
      "zionali": 659,
      "divi": 660,
      "âĢľ": 661,
      "gia": 662,
      "gio": 663,
      "sosten": 664,
      "poli": 665,
      "posi": 666,
      "que": 667,
      "ttiva": 668,
      "ssione": 669,
      "pia": 670,
      "gola": 671,
      "stria": 672,
      "rando": 673,
      "inizia": 674,
      "unione": 675,
      "finanzia": 676,
      "occupa": 677,
      "organi": 678,
      "ari": 679,
      "ate": 680,
      "ado": 681,
      "cina": 682,
      "os": 683,
      "rga": 684,
      "ur": 685,
      "vin": 686,
      "vano": 687,
      "tivo": 688,
      "tate": 689,
      "tamente": 690,
      "temp": 691,
      "inten": 692,
      "indu": 693,
      "limi": 694,
      "giun": 695,
      "sul": 696,
      "acce": 697,
      "ffe": 698,
      "integra": 699,
      "bbli": 700,
      "continu": 701,
      "00": 702,
      "ad": 703,
      "at": 704,
      "bbi": 705,
      "eti": 706,
      "sco": 707,
      "van": 708,
      "rico": 709,
      "tale": 710,
      "rale": 711,
      "ing": 712,
      "sioni": 713,
      "dio": 714,
      "diver": 715,
      "lavo": 716,
      "conf": 717,
      "allo": 718,
      "mili": 719,
      "produ": 720,
      "ttivi": 721,
      "compi": 722,
      "discu": 723,
      "parti": 724,
      "conomi": 725,
      "atten": 726,
      "cano": 727,
      "dano": 728,
      "dente": 729,
      "eli": 730,
      "effe": 731,
      "fun": 732,
      "gen": 733,
      "genza": 734,
      "istitu": 735,
      "len": 736,
      "nor": 737,
      "ope": 738,
      "osta": 739,
      "sor": 740,
      "ul": 741,
      "vvi": 742,
      "reali": 743,
      "revole": 744,
      "tari": 745,
      "tec": 746,
      "raf": 747,
      "lib": 748,
      "costitu": 749,
      "defini": 750,
      "camente": 751,
      "vati": 752,
      "presi": 753,
      "dato": 754,
      "ssimo": 755,
      "accu": 756,
      "forni": 757,
      "cordo": 758,
      "boli": 759,
      "asso": 760,
      "rispe": 761,
      "centra": 762,
      "stenza": 763,
      "utili": 764,
      "conside": 765,
      "af": 766,
      "denza": 767,
      "ec": 768,
      "evi": 769,
      "far": 770,
      "gano": 771,
      "moni": 772,
      "pes": 773,
      "son": 774,
      "san": 775,
      "svi": 776,
      "scri": 777,
      "usci": 778,
      "zzo": 779,
      "rela": 780,
      "resp": 781,
      "entra": 782,
      "rire": 783,
      "raggi": 784,
      "deci": 785,
      "zionale": 786,
      "citÃł": 787,
      "conten": 788,
      "contribu": 789,
      "dov": 790,
      "mpli": 791,
      "mare": 792,
      "bie": 793,
      "segna": 794,
      "tur": 795,
      "dati": 796,
      "damento": 797,
      "sull": 798,
      "meri": 799,
      "garanti": 800,
      "nella": 801,
      "terÃł": 802,
      "stre": 803,
      "corre": 804,
      "veni": 805,
      "applica": 806,
      "iniziativa": 807,
      "osserva": 808,
      "raffor": 809,
      "bre": 810,
      "ben": 811,
      "cin": 812,
      "cla": 813,
      "cchi": 814,
      "cani": 815,
      "don": 816,
      "dan": 817,
      "era": 818,
      "elabo": 819,
      "economi": 820,
      "fle": 821,
      "fac": 822,
      "gina": 823,
      "io": 824,
      "lun": 825,
      "otti": 826,
      "ppo": 827,
      "scon": 828,
      "tun": 829,
      "tono": 830,
      "ulti": 831,
      "zzi": 832,
      "Ã¨": 833,
      "regola": 834,
      "tici": 835,
      "insi": 836,
      "invi": 837,
      "limp": 838,
      "cola": 839,
      "costru": 840,
      "sia": 841,
      "demo": 842,
      "deter": 843,
      "legi": 844,
      "dia": 845,
      "dica": 846,
      "cal": 847,
      "cau": 848,
      "lati": 849,
      "condivi": 850,
      "sol": 851,
      "via": 852,
      "pare": 853,
      "voli": 854,
      "tratta": 855,
      "ture": 856,
      "dellu": 857,
      "stabili": 858,
      "mette": 859,
      "cura": 860,
      "zzare": 861,
      "comple": 862,
      "autori": 863,
      "parte": 864,
      "cesso": 865,
      "struttu": 866,
      "mentazione": 867,
      "ordina": 868,
      "ban": 869,
      "bar": 870,
      "cun": 871,
      "crati": 872,
      "fra": 873,
      "ges": 874,
      "gine": 875,
      "ide": 876,
      "llu": 877,
      "line": 878,
      "mon": 879,
      "mmo": 880,
      "ora": 881,
      "obie": 882,
      "ppi": 883,
      "spa": 884,
      "stu": 885,
      "svol": 886,
      "th": 887,
      "zz": 888,
      "ener": 889,
      "rito": 890,
      "riten": 891,
      "ritÃł": 892,
      "richi": 893,
      "ricol": 894,
      "ricor": 895,
      "rivol": 896,
      "tica": 897,
      "taria": 898,
      "tario": 899,
      "inca": 900,
      "inno": 901,
      "inclu": 902,
      "litÃł": 903,
      "anno": 904,
      "derÃł": 905,
      "dimo": 906,
      "diven": 907,
      "diff": 908,
      "capi": 909,
      "cambi": 910,
      "cir": 911,
      "erÃł": 912,
      "consenti": 913,
      "esa": 914,
      "esclu": 915,
      "vio": 916,
      "chÃ©": 917,
      "vare": 918,
      "bio": 919,
      "semb": 920,
      "voca": 921,
      "preci": 922,
      "suc": 923,
      "stica": 924,
      "acqui": 925,
      "zzato": 926,
      "stro": 927,
      "compren": 928,
      "onorevole": 929,
      "favo": 930,
      "ffer": 931,
      "ficazione": 932,
      "interroga": 933,
      "cessa": 934,
      "indica": 935,
      "speci": 936,
      "rebbero": 937,
      "allarga": 938,
      "dendo": 939,
      "oppor": 940,
      "europa": 941,
      "orien": 942,
      "messo": 943,
      "fonda": 944,
      "vesti": 945,
      "rappresen": 946,
      "parteci": 947,
      "amente": 948,
      "affi": 949,
      "ampi": 950,
      "ber": 951,
      "ddi": 952,
      "dal": 953,
      "ddis": 954,
      "eri": 955,
      "fen": 956,
      "gran": 957,
      "ho": 958,
      "ir": 959,
      "mma": 960,
      "mano": 961,
      "rle": 962,
      "rlo": 963,
      "sc": 964,
      "sal": 965,
      "schi": 966,
      "tuni": 967,
      "uso": 968,
      "riman": 969,
      "ricono": 970,
      "richie": 971,
      "riguar": 972,
      "riusci": 973,
      "razioni": 974,
      "tolle": 975,
      "anzi": 976,
      "siste": 977,
      "desti": 978,
      "deboli": 979,
      "late": 980,
      "lazione": 981,
      "lazioni": 982,
      "erci": 983,
      "concor": 984,
      "consegu": 985,
      "esse": 986,
      "espri": 987,
      "esam": 988,
      "estre": 989,
      "mor": 990,
      "soli": 991,
      "solle": 992,
      "soddis": 993,
      "dotto": 994,
      "vie": 995,
      "vidu": 996,
      "unto": 997,
      "uncia": 998,
      "vato": 999,
      "vamo": 1000,
      "bilmente": 1001,
      "nologi": 1002,
      "migli": 1003,
      "migra": 1004,
      "miglio": 1005,
      "prote": 1006,
      "dello": 1007,
      "pote": 1008,
      "supe": 1009,
      "sulla": 1010,
      "stare": 1011,
      "met": 1012,
      "stiche": 1013,
      "gare": 1014,
      "qual": 1015,
      "ttive": 1016,
      "ssioni": 1017,
      "ttori": 1018,
      "zzate": 1019,
      "gover": 1020,
      "inione": 1021,
      "gui": 1022,
      "formu": 1023,
      "impre": 1024,
      "appor": 1025,
      "ziale": 1026,
      "collega": 1027,
      "auspi": 1028,
      "assu": 1029,
      "tante": 1030,
      "parla": 1031,
      "muo": 1032,
      "individu": 1033,
      "crimina": 1034,
      "giusti": 1035,
      "ministra": 1036,
      "affer": 1037,
      "affron": 1038,
      "ordine": 1039,
      "adegu": 1040,
      "ringra": 1041,
      "registra": 1042,
      "informazione": 1043,
      "verifica": 1044,
      "deside": 1045,
      "tecnologi": 1046,
      "costitui": 1047,
      "svilu": 1048,
      "ara": 1049,
      "abb": 1050,
      "bene": 1051,
      "cra": 1052,
      "edu": 1053,
      "equi": 1054,
      "ffica": 1055,
      "gn": 1056,
      "genti": 1057,
      "ira": 1058,
      "ki": 1059,
      "mal": 1060,
      "mine": 1061,
      "pp": 1062,
      "pra": 1063,
      "plo": 1064,
      "prati": 1065,
      "pron": 1066,
      "ses": 1067,
      "scia": 1068,
      "scen": 1069,
      "ue": 1070,
      "uo": 1071,
      "rile": 1072,
      "ridi": 1073,
      "rice": 1074,
      "ridu": 1075,
      "riamo": 1076,
      "riferi": 1077,
      "rifle": 1078,
      "tico": 1079,
      "ticolo": 1080,
      "tarsi": 1081,
      "tele": 1082,
      "rata": 1083,
      "ramente": 1084,
      "inco": 1085,
      "inci": 1086,
      "invol": 1087,
      "anali": 1088,
      "sion": 1089,
      "detta": 1090,
      "dice": 1091,
      "dichia": 1092,
      "cata": 1093,
      "lac": 1094,
      "conce": 1095,
      "concre": 1096,
      "congiun": 1097,
      "concentra": 1098,
      "este": 1099,
      "ester": 1100,
      "espor": 1101,
      "eserci": 1102,
      "modi": 1103,
      "soci": 1104,
      "vata": 1105,
      "mato": 1106,
      "passa": 1107,
      "volu": 1108,
      "samente": 1109,
      "preoccupa": 1110,
      "prospe": 1111,
      "fiche": 1112,
      "possi": 1113,
      "poste": 1114,
      "suffici": 1115,
      "stati": 1116,
      "mere": 1117,
      "quo": 1118,
      "nego": 1119,
      "nare": 1120,
      "nazionali": 1121,
      "arri": 1122,
      "argo": 1123,
      "ttare": 1124,
      "zzati": 1125,
      "zzata": 1126,
      "pertura": 1127,
      "colpi": 1128,
      "porto": 1129,
      "versa": 1130,
      "riser": 1131,
      "rispon": 1132,
      "tanti": 1133,
      "tanza": 1134,
      "credi": 1135,
      "amministra": 1136,
      "pubbli": 1137,
      "struzione": 1138,
      "minare": 1139,
      "agen": 1140,
      "quest": 1141,
      "merci": 1142,
      "ghi": 1143,
      "aggiun": 1144,
      "influ": 1145,
      "interesse": 1146,
      "sosteni": 1147,
      "ttivitÃł": 1148,
      "democrati": 1149,
      "ricoltura": 1150,
      "soddisfa": 1151,
      "asi": 1152,
      "abi": 1153,
      "ada": 1154,
      "atto": 1155,
      "atte": 1156,
      "cca": 1157,
      "cci": 1158,
      "centi": 1159,
      "cando": 1160,
      "cchia": 1161,
      "ccio": 1162,
      "fes": 1163,
      "fru": 1164,
      "gne": 1165,
      "ia": 1166,
      "identi": 1167,
      "itali": 1168,
      "mono": 1169,
      "mino": 1170,
      "nes": 1171,
      "ore": 1172,
      "obbli": 1173,
      "pan": 1174,
      "pla": 1175,
      "rli": 1176,
      "rne": 1177,
      "rono": 1178,
      "sla": 1179,
      "sani": 1180,
      "sente": 1181,
      "Ã¬": 1182,
      "ripe": 1183,
      "tamento": 1184,
      "tazioni": 1185,
      "ragi": 1186,
      "racco": 1187,
      "inse": 1188,
      "inda": 1189,
      "intro": 1190,
      "investi": 1191,
      "lizzazione": 1192,
      "zie": 1193,
      "ziali": 1194,
      "cogli": 1195,
      "costan": 1196,
      "coinvol": 1197,
      "ann": 1198,
      "sitÃł": 1199,
      "signi": 1200,
      "lea": 1201,
      "diri": 1202,
      "disa": 1203,
      "ditÃł": 1204,
      "dipen": 1205,
      "rori": 1206,
      "cili": 1207,
      "lari": 1208,
      "lascia": 1209,
      "meno": 1210,
      "mendamento": 1211,
      "conclu": 1212,
      "convin": 1213,
      "mobili": 1214,
      "orna": 1215,
      "sostan": 1216,
      "vali": 1217,
      "vazione": 1218,
      "vamente": 1219,
      "mari": 1220,
      "mate": 1221,
      "massi": 1222,
      "segre": 1223,
      "sempli": 1224,
      "paci": 1225,
      "sape": 1226,
      "previ": 1227,
      "preve": 1228,
      "missione": 1229,
      "propor": 1230,
      "propri": 1231,
      "progre": 1232,
      "fici": 1233,
      "fissa": 1234,
      "cepi": 1235,
      "tendo": 1236,
      "delli": 1237,
      "poten": 1238,
      "sud": 1239,
      "vero": 1240,
      "stico": 1241,
      "stici": 1242,
      "quali": 1243,
      "terri": 1244,
      "terra": 1245,
      "cul": 1246,
      "inare": 1247,
      "accordo": 1248,
      "ttato": 1249,
      "ttamente": 1250,
      "ranza": 1251,
      "inizio": 1252,
      "compor": 1253,
      "competi": 1254,
      "riamente": 1255,
      "collo": 1256,
      "corso": 1257,
      "gratu": 1258,
      "vento": 1259,
      "venire": 1260,
      "auto": 1261,
      "torio": 1262,
      "aspe": 1263,
      "ciare": 1264,
      "trici": 1265,
      "ttuale": 1266,
      "fede": 1267,
      "senso": 1268,
      "pensa": 1269,
      "pubb": 1270,
      "rente": 1271,
      "giudi": 1272,
      "origina": 1273,
      "messi": 1274,
      "matico": 1275,
      "segui": 1276,
      "chiede": 1277,
      "sottoline": 1278,
      "posizione": 1279,
      "industria": 1280,
      "integrazione": 1281,
      "vanta": 1282,
      "effettu": 1283,
      "funzion": 1284,
      "associa": 1285,
      "rafforza": 1286,
      "mettere": 1287,
      "gesti": 1288,
      "dimostra": 1289,
      "migrazione": 1290,
      "incoraggi": 1291,
      "significa": 1292,
      "pubblica": 1293,
      "azioni": 1294,
      "agli": 1295,
      "attiva": 1296,
      "abbi": 1297,
      "bal": 1298,
      "ck": 1299,
      "cli": 1300,
      "cro": 1301,
      "cente": 1302,
      "cche": 1303,
      "done": 1304,
      "et": 1305,
      "ex": 1306,
      "eco": 1307,
      "elo": 1308,
      "eten": 1309,
      "effici": 1310,
      "fre": 1311,
      "fran": 1312,
      "fron": 1313,
      "gente": 1314,
      "hi": 1315,
      "ie": 1316,
      "ko": 1317,
      "nci": 1318,
      "ndo": 1319,
      "pun": 1320,
      "ppa": 1321,
      "ppe": 1322,
      "pone": 1323,
      "poni": 1324,
      "slo": 1325,
      "spre": 1326,
      "ster": 1327,
      "sfor": 1328,
      "scono": 1329,
      "ute": 1330,
      "usa": 1331,
      "ugu": 1332,
      "umani": 1333,
      "vono": 1334,
      "venti": 1335,
      "zze": 1336,
      "Ã¹": 1337,
      "Ã¼": 1338,
      "reli": 1339,
      "ona": 1340,
      "onsa": 1341,
      "riti": 1342,
      "rita": 1343,
      "ricon": 1344,
      "riuni": 1345,
      "risul": 1346,
      "risol": 1347,
      "tal": 1348,
      "rate": 1349,
      "rapi": 1350,
      "raggio": 1351,
      "into": 1352,
      "inqu": 1353,
      "indeboli": 1354,
      "coli": 1355,
      "comi": 1356,
      "anda": 1357,
      "sid": 1358,
      "dea": 1359,
      "dita": 1360,
      "dimenti": 1361,
      "distru": 1362,
      "difen": 1363,
      "cali": 1364,
      "lato": 1365,
      "menzion": 1366,
      "mentare": 1367,
      "conta": 1368,
      "consu": 1369,
      "concer": 1370,
      "contemp": 1371,
      "congratu": 1372,
      "esta": 1373,
      "espre": 1374,
      "mol": 1375,
      "altra": 1376,
      "alter": 1377,
      "altro": 1378,
      "solu": 1379,
      "dotte": 1380,
      "vita": 1381,
      "visi": 1382,
      "vigi": 1383,
      "viamo": 1384,
      "unque": 1385,
      "varia": 1386,
      "maggio": 1387,
      "bia": 1388,
      "biso": 1389,
      "pale": 1390,
      "paga": 1391,
      "noti": 1392,
      "tradu": 1393,
      "presa": 1394,
      "prece": 1395,
      "tutto": 1396,
      "misu": 1397,
      "promo": 1398,
      "proce": 1399,
      "prossi": 1400,
      "progra": 1401,
      "fir": 1402,
      "fico": 1403,
      "popo": 1404,
      "posti": 1405,
      "pera": 1406,
      "sugge": 1407,
      "stin": 1408,
      "ttiamo": 1409,
      "necessa": 1410,
      "ssia": 1411,
      "terrori": 1412,
      "chio": 1413,
      "arsi": 1414,
      "acca": 1415,
      "accol": 1416,
      "accogli": 1417,
      "ttano": 1418,
      "compen": 1419,
      "competen": 1420,
      "forme": 1421,
      "impo": 1422,
      "ggia": 1423,
      "appre": 1424,
      "appo": 1425,
      "eremo": 1426,
      "ania": 1427,
      "corsi": 1428,
      "porti": 1429,
      "porta": 1430,
      "fare": 1431,
      "discrimina": 1432,
      "austria": 1433,
      "risce": 1434,
      "riscono": 1435,
      "ficare": 1436,
      "ciale": 1437,
      "basa": 1438,
      "batte": 1439,
      "intero": 1440,
      "prima": 1441,
      "princi": 1442,
      "ttura": 1443,
      "commi": 1444,
      "strate": 1445,
      "occa": 1446,
      "indipen": 1447,
      "nuo": 1448,
      "nutri": 1449,
      "pure": 1450,
      "landa": 1451,
      "opinione": 1452,
      "europe": 1453,
      "questa": 1454,
      "spie": 1455,
      "ghe": 1456,
      "adesione": 1457,
      "sinda": 1458,
      "ferito": 1459,
      "ferro": 1460,
      "appli": 1461,
      "assicu": 1462,
      "prende": 1463,
      "prendere": 1464,
      "erenza": 1465,
      "avvicina": 1466,
      "pericolo": 1467,
      "attuazione": 1468,
      "impegna": 1469,
      "gerÃł": 1470,
      "confron": 1471,
      "ecce": 1472,
      "responsa": 1473,
      "breve": 1474,
      "ultima": 1475,
      "limpor": 1476,
      "determina": 1477,
      "obiettivo": 1478,
      "energia": 1479,
      "esclusi": 1480,
      "successi": 1481,
      "interrogazione": 1482,
      "allargamento": 1483,
      "fondamenta": 1484,
      "tunitÃł": 1485,
      "destina": 1486,
      "educa": 1487,
      "equilib": 1488,
      "negozia": 1489,
      "ab": 1490,
      "agi": 1491,
      "ave": 1492,
      "atta": 1493,
      "aper": 1494,
      "aere": 1495,
      "agna": 1496,
      "ameri": 1497,
      "bri": 1498,
      "bor": 1499,
      "blo": 1500,
      "cle": 1501,
      "ccu": 1502,
      "cini": 1503,
      "ccare": 1504,
      "ccani": 1505,
      "ds": 1506,
      "dina": 1507,
      "dini": 1508,
      "dando": 1509,
      "dalle": 1510,
      "eta": 1511,
      "eva": 1512,
      "epi": 1513,
      "etÃł": 1514,
      "eman": 1515,
      "effica": 1516,
      "fal": 1517,
      "gro": 1518,
      "gendo": 1519,
      "ggere": 1520,
      "hu": 1521,
      "har": 1522,
      "igno": 1523,
      "imb": 1524,
      "illu": 1525,
      "istruzione": 1526,
      "lon": 1527,
      "lor": 1528,
      "lga": 1529,
      "ltro": 1530,
      "mone": 1531,
      "non": 1532,
      "off": 1533,
      "otten": 1534,
      "ogge": 1535,
      "offer": 1536,
      "ph": 1537,
      "pria": 1538,
      "plica": 1539,
      "rla": 1540,
      "rvi": 1541,
      "rmi": 1542,
      "rgo": 1543,
      "roni": 1544,
      "rticolo": 1545,
      "sano": 1546,
      "scomp": 1547,
      "senza": 1548,
      "sfru": 1549,
      "sÃ¬": 1550,
      "tl": 1551,
      "tt": 1552,
      "vor": 1553,
      "we": 1554,
      "Ã¡": 1555,
      "rei": 1556,
      "resi": 1557,
      "reci": 1558,
      "reso": 1559,
      "recu": 1560,
      "recepi": 1561,
      "onali": 1562,
      "onale": 1563,
      "rien": 1564,
      "rifi": 1565,
      "rive": 1566,
      "riba": 1567,
      "ricer": 1568,
      "tili": 1569,
      "tasse": 1570,
      "talmente": 1571,
      "tezza": 1572,
      "terio": 1573,
      "ratori": 1574,
      "ratte": 1575,
      "radica": 1576,
      "intra": 1577,
      "insta": 1578,
      "tor": 1579,
      "lio": 1580,
      "liqui": 1581,
      "zialmente": 1582,
      "cole": 1583,
      "cofinanzia": 1584,
      "costre": 1585,
      "coordina": 1586,
      "cosid": 1587,
      "ana": 1588,
      "anco": 1589,
      "anni": 1590,
      "sie": 1591,
      "sito": 1592,
      "deri": 1593,
      "debi": 1594,
      "dese": 1595,
      "deplo": 1596,
      "dici": 1597,
      "dizione": 1598,
      "dimento": 1599,
      "dizioni": 1600,
      "dimin": 1601,
      "caratte": 1602,
      "rome": 1603,
      "citta": 1604,
      "laf": 1605,
      "lasci": 1606,
      "meni": 1607,
      "conte": 1608,
      "condu": 1609,
      "conven": 1610,
      "conserva": 1611,
      "consul": 1612,
      "condan": 1613,
      "consoli": 1614,
      "esen": 1615,
      "esor": 1616,
      "esso": 1617,
      "essen": 1618,
      "esser": 1619,
      "esperi": 1620,
      "moda": 1621,
      "motiva": 1622,
      "alo": 1623,
      "alta": 1624,
      "alcun": 1625,
      "gion": 1626,
      "sopra": 1627,
      "visione": 1628,
      "var": 1629,
      "vate": 1630,
      "male": 1631,
      "mazione": 1632,
      "mace": 1633,
      "setti": 1634,
      "pari": 1635,
      "pazione": 1636,
      "vogli": 1637,
      "note": 1638,
      "tragi": 1639,
      "prepa": 1640,
      "presu": 1641,
      "presta": 1642,
      "mitÃł": 1643,
      "data": 1644,
      "dali": 1645,
      "provo": 1646,
      "provoca": 1647,
      "promuo": 1648,
      "profes": 1649,
      "cere": 1650,
      "cemente": 1651,
      "tener": 1652,
      "deline": 1653,
      "posta": 1654,
      "poter": 1655,
      "posto": 1656,
      "sura": 1657,
      "suali": 1658,
      "super": 1659,
      "sulle": 1660,
      "stato": 1661,
      "meccani": 1662,
      "garan": 1663,
      "qua": 1664,
      "quan": 1665,
      "quad": 1666,
      "nega": 1667,
      "necessi": 1668,
      "pien": 1669,
      "picco": 1670,
      "nazionale": 1671,
      "cuzione": 1672,
      "inade": 1673,
      "inamento": 1674,
      "armoni": 1675,
      "duto": 1676,
      "acci": 1677,
      "accesso": 1678,
      "ttore": 1679,
      "ttata": 1680,
      "zzazioni": 1681,
      "zzarsi": 1682,
      "ranze": 1683,
      "compli": 1684,
      "perpe": 1685,
      "person": 1686,
      "bel": 1687,
      "impon": 1688,
      "imposta": 1689,
      "riale": 1690,
      "erebbe": 1691,
      "nia": 1692,
      "collabo": 1693,
      "corpo": 1694,
      "grado": 1695,
      "entemente": 1696,
      "unica": 1697,
      "ventu": 1698,
      "venuto": 1699,
      "disponi": 1700,
      "auten": 1701,
      "assemb": 1702,
      "mante": 1703,
      "mangi": 1704,
      "gevo": 1705,
      "ficata": 1706,
      "ficato": 1707,
      "basi": 1708,
      "stere": 1709,
      "trice": 1710,
      "tanto": 1711,
      "tanni": 1712,
      "interpre": 1713,
      "penali": 1714,
      "llare": 1715,
      "multi": 1716,
      "cento": 1717,
      "cendo": 1718,
      "tivamente": 1719,
      "antici": 1720,
      "occorre": 1721,
      "criti": 1722,
      "sciuto": 1723,
      "uropa": 1724,
      "volta": 1725,
      "servi": 1726,
      "fficio": 1727,
      "scetti": 1728,
      "mentari": 1729,
      "stanzia": 1730,
      "giuridi": 1731,
      "formazione": 1732,
      "traspa": 1733,
      "agricoltura": 1734,
      "questi": 1735,
      "matica": 1736,
      "contraddi": 1737,
      "cana": 1738,
      "imma": 1739,
      "ferma": 1740,
      "rinno": 1741,
      "liberali": 1742,
      "mpio": 1743,
      "assicura": 1744,
      "pongono": 1745,
      "valu": 1746,
      "valuta": 1747,
      "elen": 1748,
      "generali": 1749,
      "erenze": 1750,
      "comunica": 1751,
      "aggiu": 1752,
      "controver": 1753,
      "trans": 1754,
      "interessa": 1755,
      "ambiente": 1756,
      "occupazione": 1757,
      "organizzazione": 1758,
      "intensi": 1759,
      "000": 1760,
      "elimina": 1761,
      "tecni": 1762,
      "accusa": 1763,
      "accumu": 1764,
      "rispetta": 1765,
      "eccessi": 1766,
      "eviden": 1767,
      "respin": 1768,
      "raggiun": 1769,
      "contribui": 1770,
      "applicazione": 1771,
      "idea": 1772,
      "orane": 1773,
      "opportunitÃł": 1774,
      "estremi": 1775,
      "ringrazia": 1776,
      "abban": 1777,
      "analisi": 1778,
      "sociali": 1779,
      "voluzione": 1780,
      "influenza": 1781,
      "raccoman": 1782,
      "introdu": 1783,
      "progressi": 1784,
      "terrane": 1785,
      "cultura": 1786,
      "associazione": 1787,
      "religio": 1788,
      "ritar": 1789,
      "congratula": 1790,
      "alterna": 1791,
      "strategi": 1792,
      "diminu": 1793,
      "assemblea": 1794,
      "azi": 1795,
      "ace": 1796,
      "atti": 1797,
      "abo": 1798,
      "ario": 1799,
      "aboli": 1800,
      "ampli": 1801,
      "agevo": 1802,
      "bon": 1803,
      "bra": 1804,
      "ble": 1805,
      "bac": 1806,
      "bali": 1807,
      "bru": 1808,
      "cch": 1809,
      "ccol": 1810,
      "ccia": 1811,
      "canti": 1812,
      "ccato": 1813,
      "ccordo": 1814,
      "dt": 1815,
      "dri": 1816,
      "dra": 1817,
      "dino": 1818,
      "dalla": 1819,
      "ed": 1820,
      "eu": 1821,
      "eto": 1822,
      "ero": 1823,
      "eme": 1824,
      "ecolo": 1825,
      "emer": 1826,
      "elogi": 1827,
      "emendamento": 1828,
      "eventu": 1829,
      "fro": 1830,
      "fina": 1831,
      "fino": 1832,
      "gg": 1833,
      "gan": 1834,
      "glo": 1835,
      "gando": 1836,
      "ggono": 1837,
      "gger": 1838,
      "gricoltura": 1839,
      "ha": 1840,
      "iti": 1841,
      "ita": 1842,
      "ica": 1843,
      "ista": 1844,
      "iamo": 1845,
      "ille": 1846,
      "irre": 1847,
      "ju": 1848,
      "ka": 1849,
      "kin": 1850,
      "lino": 1851,
      "ltre": 1852,
      "ms": 1853,
      "mbo": 1854,
      "mbu": 1855,
      "ner": 1856,
      "nente": 1857,
      "ole": 1858,
      "olo": 1859,
      "ospi": 1860,
      "pl": 1861,
      "pli": 1862,
      "ple": 1863,
      "ppro": 1864,
      "plu": 1865,
      "ppor": 1866,
      "pinione": 1867,
      "ppure": 1868,
      "rs": 1869,
      "rmente": 1870,
      "rÃ²": 1871,
      "sh": 1872,
      "sk": 1873,
      "sun": 1874,
      "sfi": 1875,
      "sve": 1876,
      "spor": 1877,
      "stori": 1878,
      "spen": 1879,
      "sfu": 1880,
      "sorg": 1881,
      "smante": 1882,
      "ut": 1883,
      "ume": 1884,
      "umento": 1885,
      "uman": 1886,
      "vve": 1887,
      "vina": 1888,
      "vani": 1889,
      "vuo": 1890,
      "wo": 1891,
      "wal": 1892,
      "Ã¶": 1893,
      "rea": 1894,
      "rezza": 1895,
      "repu": 1896,
      "remmo": 1897,
      "reddi": 1898,
      "onta": 1899,
      "enor": 1900,
      "enze": 1901,
      "ries": 1902,
      "risa": 1903,
      "riper": 1904,
      "rife": 1905,
      "rirÃł": 1906,
      "richia": 1907,
      "riforma": 1908,
      "rifu": 1909,
      "rives": 1910,
      "ristruttu": 1911,
      "risolu": 1912,
      "tin": 1913,
      "tiamo": 1914,
      "tarie": 1915,
      "teri": 1916,
      "tela": 1917,
      "temente": 1918,
      "teremo": 1919,
      "raga": 1920,
      "ramento": 1921,
      "rarsi": 1922,
      "ralmente": 1923,
      "inn": 1924,
      "inta": 1925,
      "iner": 1926,
      "incon": 1927,
      "inva": 1928,
      "inve": 1929,
      "incre": 1930,
      "infe": 1931,
      "incontra": 1932,
      "tossi": 1933,
      "lista": 1934,
      "listi": 1935,
      "lidea": 1936,
      "ziar": 1937,
      "cosci": 1938,
      "costo": 1939,
      "colare": 1940,
      "coeren": 1941,
      "coraggio": 1942,
      "anne": 1943,
      "anze": 1944,
      "analo": 1945,
      "sig": 1946,
      "sizione": 1947,
      "situ": 1948,
      "sicu": 1949,
      "sistenza": 1950,
      "deva": 1951,
      "detti": 1952,
      "detto": 1953,
      "destra": 1954,
      "depu": 1955,
      "delibe": 1956,
      "descri": 1957,
      "lei": 1958,
      "ler": 1959,
      "les": 1960,
      "lette": 1961,
      "die": 1962,
      "dite": 1963,
      "diso": 1964,
      "ditori": 1965,
      "diplo": 1966,
      "distin": 1967,
      "cati": 1968,
      "camp": 1969,
      "rore": 1970,
      "roso": 1971,
      "civi": 1972,
      "cias": 1973,
      "cipri": 1974,
      "mentato": 1975,
      "consen": 1976,
      "connes": 1977,
      "consape": 1978,
      "essi": 1979,
      "essa": 1980,
      "esten": 1981,
      "esau": 1982,
      "more": 1983,
      "modu": 1984,
      "molti": 1985,
      "alt": 1986,
      "alti": 1987,
      "altri": 1988,
      "altre": 1989,
      "gimento": 1990,
      "giamo": 1991,
      "giorna": 1992,
      "sov": 1993,
      "sola": 1994,
      "sospe": 1995,
      "sogge": 1996,
      "docu": 1997,
      "doves": 1998,
      "viene": 1999,
      "vac": 2000,
      "vale": 2001,
      "mai": 2002,
      "macch": 2003,
      "bilan": 2004,
      "sepa": 2005,
      "sette": 2006,
      "pati": 2007,
      "paro": 2008,
      "pacitÃł": 2009,
      "nove": 2010,
      "lotta": 2011,
      "traver": 2012,
      "preso": 2013,
      "prese": 2014,
      "presti": 2015,
      "presenti": 2016,
      "pressione": 2017,
      "tus": 2018,
      "turi": 2019,
      "tutta": 2020,
      "mia": 2021,
      "mie": 2022,
      "mico": 2023,
      "mici": 2024,
      "miamo": 2025,
      "missioni": 2026,
      "dar": 2027,
      "dazione": 2028,
      "damente": 2029,
      "dazioni": 2030,
      "proge": 2031,
      "prosegu": 2032,
      "proveni": 2033,
      "proble": 2034,
      "provve": 2035,
      "fia": 2036,
      "fisi": 2037,
      "fitto": 2038,
      "tenuto": 2039,
      "dellimp": 2040,
      "pot": 2041,
      "potre": 2042,
      "poss": 2043,
      "peggio": 2044,
      "sua": 2045,
      "sub": 2046,
      "sur": 2047,
      "suon": 2048,
      "subi": 2049,
      "sussi": 2050,
      "susci": 2051,
      "ved": 2052,
      "vera": 2053,
      "velo": 2054,
      "stano": 2055,
      "meto": 2056,
      "mero": 2057,
      "metten": 2058,
      "stimo": 2059,
      "gar": 2060,
      "gato": 2061,
      "gali": 2062,
      "gale": 2063,
      "gazione": 2064,
      "quente": 2065,
      "ttime": 2066,
      "nesi": 2067,
      "nelli": 2068,
      "ssion": 2069,
      "ssili": 2070,
      "ssima": 2071,
      "pic": 2072,
      "pito": 2073,
      "pian": 2074,
      "terÃ²": 2075,
      "chiu": 2076,
      "natura": 2077,
      "cui": 2078,
      "cuo": 2079,
      "cur": 2080,
      "curio": 2081,
      "arti": 2082,
      "articolo": 2083,
      "duti": 2084,
      "dura": 2085,
      "luo": 2086,
      "accomp": 2087,
      "accia": 2088,
      "accer": 2089,
      "ttobre": 2090,
      "goglio": 2091,
      "stono": 2092,
      "rante": 2093,
      "compro": 2094,
      "compag": 2095,
      "compati": 2096,
      "gue": 2097,
      "perme": 2098,
      "perman": 2099,
      "perfe": 2100,
      "permet": 2101,
      "fortun": 2102,
      "impri": 2103,
      "impie": 2104,
      "appa": 2105,
      "appe": 2106,
      "glia": 2107,
      "glie": 2108,
      "gliere": 2109,
      "colle": 2110,
      "colpe": 2111,
      "coltiva": 2112,
      "corte": 2113,
      "corrispon": 2114,
      "corrono": 2115,
      "gravi": 2116,
      "fari": 2117,
      "fatti": 2118,
      "famili": 2119,
      "famigli": 2120,
      "facili": 2121,
      "vendo": 2122,
      "augu": 2123,
      "aumenti": 2124,
      "aumenta": 2125,
      "autono": 2126,
      "onieri": 2127,
      "bour": 2128,
      "assa": 2129,
      "rismo": 2130,
      "rischi": 2131,
      "ficati": 2132,
      "inevita": 2133,
      "barome": 2134,
      "intera": 2135,
      "buro": 2136,
      "bulga": 2137,
      "prigi": 2138,
      "priori": 2139,
      "privati": 2140,
      "stero": 2141,
      "ttuazione": 2142,
      "comme": 2143,
      "commerci": 2144,
      "avver": 2145,
      "avven": 2146,
      "avanza": 2147,
      "cresce": 2148,
      "conosce": 2149,
      "interro": 2150,
      "interno": 2151,
      "intervento": 2152,
      "llarga": 2153,
      "mutu": 2154,
      "ssegna": 2155,
      "cristi": 2156,
      "nucle": 2157,
      "numero": 2158,
      "speri": 2159,
      "stente": 2160,
      "utiamo": 2161,
      "chiari": 2162,
      "landia": 2163,
      "landese": 2164,
      "scel": 2165,
      "renza": 2166,
      "stando": 2167,
      "stanza": 2168,
      "atore": 2169,
      "denze": 2170,
      "opzione": 2171,
      "licazione": 2172,
      "scambi": 2173,
      "trasforma": 2174,
      "mbre": 2175,
      "esiste": 2176,
      "agrico": 2177,
      "messe": 2178,
      "messa": 2179,
      "rietÃł": 2180,
      "matiche": 2181,
      "fusione": 2182,
      "mersi": 2183,
      "logico": 2184,
      "medio": 2185,
      "mediterrane": 2186,
      "atamente": 2187,
      "cance": 2188,
      "folli": 2189,
      "immigrazione": 2190,
      "lingui": 2191,
      "since": 2192,
      "singo": 2193,
      "zoo": 2194,
      "considere": 2195,
      "approccio": 2196,
      "assistenza": 2197,
      "importanza": 2198,
      "generi": 2199,
      "genero": 2200,
      "carbu": 2201,
      "stribu": 2202,
      "avvio": 2203,
      "aiu": 2204,
      "esecu": 2205,
      "sottoscri": 2206,
      "delleuro": 2207,
      "attuale": 2208,
      "isra": 2209,
      "iscono": 2210,
      "rogare": 2211,
      "verifi": 2212,
      "ambizio": 2213,
      "gersi": 2214,
      "zionalitÃł": 2215,
      "adope": 2216,
      "adotta": 2217,
      "urgenza": 2218,
      "temporane": 2219,
      "accele": 2220,
      "attribu": 2221,
      "attraver": 2222,
      "lavora": 2223,
      "conomia": 2224,
      "attenzione": 2225,
      "istituzione": 2226,
      "norma": 2227,
      "assolu": 2228,
      "utilizzo": 2229,
      "afri": 2230,
      "monito": 2231,
      "sanci": 2232,
      "entrata": 2233,
      "turco": 2234,
      "correre": 2235,
      "osservatorio": 2236,
      "rafforz": 2237,
      "flessi": 2238,
      "ottima": 2239,
      "tunno": 2240,
      "ultimo": 2241,
      "determin": 2242,
      "legisla": 2243,
      "autoritÃł": 2244,
      "spagno": 2245,
      "zzano": 2246,
      "richiamo": 2247,
      "innova": 2248,
      "circostan": 2249,
      "biologi": 2250,
      "precipi": 2251,
      "succe": 2252,
      "favore": 2253,
      "opportun": 2254,
      "partecip": 2255,
      "partecipa": 2256,
      "ampia": 2257,
      "grande": 2258,
      "salva": 2259,
      "riconosce": 2260,
      "riguarda": 2261,
      "tollera": 2262,
      "laterali": 2263,
      "essere": 2264,
      "esamin": 2265,
      "estrema": 2266,
      "governa": 2267,
      "auspica": 2268,
      "afferma": 2269,
      "sviluppo": 2270,
      "benefi": 2271,
      "craina": 2272,
      "argomento": 2273,
      "agenzia": 2274,
      "democratici": 2275,
      "abitu": 2276,
      "italia": 2277,
      "monopoli": 2278,
      "nessun": 2279,
      "ragione": 2280,
      "lasciato": 2281,
      "proprie": 2282,
      "vantaggi": 2283,
      "aglianza": 2284,
      "efficienza": 2285,
      "inquinamento": 2286,
      "programma": 2287,
      "compensa": 2288,
      "appoggi": 2289,
      "commissa": 2290,
      "occasione": 2291,
      "ferrovia": 2292,
      "educazione": 2293,
      "britanni": 2294,
      "ccupazione": 2295,
      "epizoo": 2296,
      "tlanti": 2297,
      "recipro": 2298,
      "recupe": 2299,
      "tilizzo": 2300,
      "caratteri": 2301,
      "esperienza": 2302,
      "settiman": 2303,
      "inadegu": 2304,
      "rinnova": 2305,
      "evidenzia": 2306,
      "abbandon": 2307,
      "ecologi": 2308,
      "rifugi": 2309,
      "ciascun": 2310,
      "ciprio": 2311,
      "accompagna": 2312,
      "barometro": 2313,
      "llargamento": 2314,
      "ah": 2315,
      "ay": 2316,
      "az": 2317,
      "aro": 2318,
      "aci": 2319,
      "ago": 2320,
      "aria": 2321,
      "aver": 2322,
      "atro": 2323,
      "abu": 2324,
      "abile": 2325,
      "agno": 2326,
      "attivi": 2327,
      "apertura": 2328,
      "attivitÃł": 2329,
      "aero": 2330,
      "acui": 2331,
      "bro": 2332,
      "bina": 2333,
      "bano": 2334,
      "bas": 2335,
      "bania": 2336,
      "cs": 2337,
      "cse": 2338,
      "cce": 2339,
      "cenza": 2340,
      "cine": 2341,
      "clan": 2342,
      "cchie": 2343,
      "ccano": 2344,
      "ccesso": 2345,
      "croni": 2346,
      "din": 2347,
      "dro": 2348,
      "ddo": 2349,
      "dda": 2350,
      "doni": 2351,
      "dine": 2352,
      "dÃ©": 2353,
      "dante": 2354,
      "dallo": 2355,
      "ea": 2356,
      "em": 2357,
      "ete": 2358,
      "ede": 2359,
      "edi": 2360,
      "evo": 2361,
      "ego": 2362,
      "ette": 2363,
      "egno": 2364,
      "emb": 2365,
      "emin": 2366,
      "ecco": 2367,
      "evoluzione": 2368,
      "fan": 2369,
      "foni": 2370,
      "fine": 2371,
      "feren": 2372,
      "frica": 2373,
      "gk": 2374,
      "gini": 2375,
      "gani": 2376,
      "gru": 2377,
      "ganti": 2378,
      "hen": 2379,
      "hanno": 2380,
      "il": 2381,
      "ite": 2382,
      "ito": 2383,
      "ico": 2384,
      "iro": 2385,
      "igi": 2386,
      "ipo": 2387,
      "itÃł": 2388,
      "imento": 2389,
      "iran": 2390,
      "ill": 2391,
      "isce": 2392,
      "ipote": 2393,
      "je": 2394,
      "jo": 2395,
      "ken": 2396,
      "kis": 2397,
      "kara": 2398,
      "lÃ": 2399,
      "lando": 2400,
      "lunione": 2401,
      "mc": 2402,
      "mun": 2403,
      "mbe": 2404,
      "mba": 2405,
      "mÃ©": 2406,
      "mmet": 2407,
      "mmigrazione": 2408,
      "nano": 2409,
      "ot": 2410,
      "ov": 2411,
      "odi": 2412,
      "omo": 2413,
      "osa": 2414,
      "ogra": 2415,
      "operi": 2416,
      "ogni": 2417,
      "opia": 2418,
      "odio": 2419,
      "ovvi": 2420,
      "oltre": 2421,
      "pt": 2422,
      "pani": 2423,
      "ppia": 2424,
      "plen": 2425,
      "pposizione": 2426,
      "rno": 2427,
      "rrÃł": 2428,
      "rÃ¼": 2429,
      "rlanda": 2430,
      "sz": 2431,
      "smi": 2432,
      "spo": 2433,
      "spri": 2434,
      "spar": 2435,
      "sando": 2436,
      "sino": 2437,
      "scan": 2438,
      "scano": 2439,
      "sunto": 2440,
      "spropor": 2441,
      "sblo": 2442,
      "squad": 2443,
      "snia": 2444,
      "svantaggi": 2445,
      "ton": 2446,
      "tru": 2447,
      "toni": 2448,
      "tÃ¹": 2449,
      "uer": 2450,
      "utra": 2451,
      "uten": 2452,
      "usione": 2453,
      "uffici": 2454,
      "ustria": 2455,
      "ucci": 2456,
      "ussia": 2457,
      "ufficio": 2458,
      "vra": 2459,
      "vini": 2460,
      "vente": 2461,
      "vanti": 2462,
      "vanza": 2463,
      "was": 2464,
      "wat": 2465,
      "yi": 2466,
      "yo": 2467,
      "¿½": 2468,
      "Ã¯": 2469,
      "ï¿½": 2470,
      "reb": 2471,
      "reg": 2472,
      "reti": 2473,
      "revi": 2474,
      "rese": 2475,
      "resa": 2476,
      "resta": 2477,
      "rego": 2478,
      "reste": 2479,
      "requi": 2480,
      "restri": 2481,
      "retribu": 2482,
      "recla": 2483,
      "recente": 2484,
      "ondata": 2485,
      "eng": 2486,
      "eni": 2487,
      "enni": 2488,
      "entamento": 2489,
      "rid": 2490,
      "rimo": 2491,
      "rima": 2492,
      "rista": 2493,
      "rigo": 2494,
      "riere": 2495,
      "ripor": 2496,
      "ripri": 2497,
      "riprodu": 2498,
      "riparti": 2499,
      "rissimo": 2500,
      "rientra": 2501,
      "rinazionali": 2502,
      "risie": 2503,
      "tito": 2504,
      "tipo": 2505,
      "tiche": 2506,
      "ticamente": 2507,
      "tilitÃł": 2508,
      "tas": 2509,
      "tassi": 2510,
      "tamenti": 2511,
      "tassa": 2512,
      "tagna": 2513,
      "tarci": 2514,
      "taglio": 2515,
      "tarlo": 2516,
      "tabac": 2517,
      "teo": 2518,
      "tere": 2519,
      "tesi": 2520,
      "tede": 2521,
      "tero": 2522,
      "tesa": 2523,
      "temi": 2524,
      "teme": 2525,
      "tego": 2526,
      "testo": 2527,
      "telli": 2528,
      "tempi": 2529,
      "terebbero": 2530,
      "raq": 2531,
      "rava": 2532,
      "ralle": 2533,
      "radio": 2534,
      "razionale": 2535,
      "rastruttu": 2536,
      "ramma": 2537,
      "raccol": 2538,
      "ragg": 2539,
      "insu": 2540,
      "inchi": 2541,
      "infor": 2542,
      "ingra": 2543,
      "indis": 2544,
      "inge": 2545,
      "incontro": 2546,
      "indiscu": 2547,
      "insegna": 2548,
      "insuffici": 2549,
      "insosteni": 2550,
      "incenti": 2551,
      "indone": 2552,
      "ininterro": 2553,
      "intollera": 2554,
      "totali": 2555,
      "total": 2556,
      "lia": 2557,
      "lis": 2558,
      "lito": 2559,
      "live": 2560,
      "litti": 2561,
      "litto": 2562,
      "litta": 2563,
      "limina": 2564,
      "ziamo": 2565,
      "codi": 2566,
      "cosa": 2567,
      "costi": 2568,
      "copen": 2569,
      "coesi": 2570,
      "coope": 2571,
      "cosur": 2572,
      "and": 2573,
      "anu": 2574,
      "anch": 2575,
      "anche": 2576,
      "annu": 2577,
      "sire": 2578,
      "siti": 2579,
      "simi": 2580,
      "siamo": 2581,
      "sibili": 2582,
      "sibile": 2583,
      "signo": 2584,
      "sicura": 2585,
      "des": 2586,
      "dev": 2587,
      "delo": 2588,
      "deten": 2589,
      "deve": 2590,
      "debo": 2591,
      "dette": 2592,
      "desione": 2593,
      "decen": 2594,
      "debb": 2595,
      "delega": 2596,
      "deferi": 2597,
      "dedica": 2598,
      "defici": 2599,
      "let": 2600,
      "lele": 2601,
      "lese": 2602,
      "letto": 2603,
      "leser": 2604,
      "leade": 2605,
      "legge": 2606,
      "zionato": 2607,
      "dito": 2608,
      "dimen": 2609,
      "digi": 2610,
      "dista": 2611,
      "diba": 2612,
      "diffici": 2613,
      "dizionale": 2614,
      "dirle": 2615,
      "distribu": 2616,
      "divente": 2617,
      "cao": 2618,
      "cari": 2619,
      "cale": 2620,
      "caso": 2621,
      "cava": 2622,
      "casa": 2623,
      "catori": 2624,
      "catali": 2625,
      "campi": 2626,
      "carico": 2627,
      "caccia": 2628,
      "catego": 2629,
      "rosa": 2630,
      "romani": 2631,
      "citi": 2632,
      "cita": 2633,
      "cile": 2634,
      "ciano": 2635,
      "citato": 2636,
      "ciden": 2637,
      "ciÃ²": 2638,
      "citate": 2639,
      "cipl": 2640,
      "lal": 2641,
      "lam": 2642,
      "lata": 2643,
      "lava": 2644,
      "lama": 2645,
      "latti": 2646,
      "lassi": 2647,
      "lasso": 2648,
      "lapp": 2649,
      "lappro": 2650,
      "lamico": 2651,
      "menda": 2652,
      "mentando": 2653,
      "erre": 2654,
      "eron": 2655,
      "erra": 2656,
      "erba": 2657,
      "erÃ²": 2658,
      "ergia": 2659,
      "errore": 2660,
      "conto": 2661,
      "condo": 2662,
      "convi": 2663,
      "consta": 2664,
      "conver": 2665,
      "conge": 2666,
      "conces": 2667,
      "concili": 2668,
      "consenso": 2669,
      "eso": 2670,
      "esto": 2671,
      "estiva": 2672,
      "espu": 2673,
      "essan": 2674,
      "espan": 2675,
      "espli": 2676,
      "movi": 2677,
      "mostra": 2678,
      "ormente": 2679,
      "orgoglio": 2680,
      "alte": 2681,
      "alto": 2682,
      "altÃł": 2683,
      "gior": 2684,
      "gitto": 2685,
      "soc": 2686,
      "sostitu": 2687,
      "sogno": 2688,
      "sosp": 2689,
      "soffer": 2690,
      "soster": 2691,
      "sospen": 2692,
      "sofia": 2693,
      "dozione": 2694,
      "dolo": 2695,
      "doman": 2696,
      "dolla": 2697,
      "doppi": 2698,
      "dogan": 2699,
      "vic": 2700,
      "vii": 2701,
      "vir": 2702,
      "vice": 2703,
      "vista": 2704,
      "viare": 2705,
      "vitali": 2706,
      "uno": 2707,
      "unani": 2708,
      "uncio": 2709,
      "ungh": 2710,
      "cher": 2711,
      "chino": 2712,
      "vag": 2713,
      "vatore": 2714,
      "mad": 2715,
      "mas": 2716,
      "maes": 2717,
      "maggi": 2718,
      "matori": 2719,
      "massa": 2720,
      "matore": 2721,
      "magni": 2722,
      "maschi": 2723,
      "malatti": 2724,
      "biel": 2725,
      "sedu": 2726,
      "seria": 2727,
      "sedere": 2728,
      "setten": 2729,
      "separa": 2730,
      "settori": 2731,
      "secuzione": 2732,
      "pace": 2733,
      "passe": 2734,
      "passo": 2735,
      "paritÃł": 2736,
      "pacche": 2737,
      "voi": 2738,
      "volo": 2739,
      "vocare": 2740,
      "nomina": 2741,
      "lou": 2742,
      "lode": 2743,
      "lotti": 2744,
      "lomÃ©": 2745,
      "trar": 2746,
      "trata": 2747,
      "tratti": 2748,
      "trage": 2749,
      "traguar": 2750,
      "sato": 2751,
      "sappi": 2752,
      "satlanti": 2753,
      "premi": 2754,
      "preten": 2755,
      "preven": 2756,
      "presso": 2757,
      "preoccu": 2758,
      "premin": 2759,
      "prepara": 2760,
      "precau": 2761,
      "presente": 2762,
      "preventi": 2763,
      "tuto": 2764,
      "tutela": 2765,
      "turismo": 2766,
      "miti": 2767,
      "mite": 2768,
      "mica": 2769,
      "mila": 2770,
      "miche": 2771,
      "darci": 2772,
      "proba": 2773,
      "profu": 2774,
      "proposi": 2775,
      "provvi": 2776,
      "procla": 2777,
      "propria": 2778,
      "filo": 2779,
      "fidu": 2780,
      "figu": 2781,
      "fisca": 2782,
      "fiori": 2783,
      "cele": 2784,
      "cellu": 2785,
      "tenza": 2786,
      "tenga": 2787,
      "tenere": 2788,
      "tentati": 2789,
      "poc": 2790,
      "poi": 2791,
      "pol": 2792,
      "poca": 2793,
      "petro": 2794,
      "perio": 2795,
      "suo": 2796,
      "suale": 2797,
      "sulli": 2798,
      "sullo": 2799,
      "vede": 2800,
      "vegli": 2801,
      "vege": 2802,
      "veranno": 2803,
      "vecchi": 2804,
      "veramente": 2805,
      "state": 2806,
      "statuni": 2807,
      "mera": 2808,
      "metri": 2809,
      "memb": 2810,
      "merica": 2811,
      "medesi": 2812,
      "mezzi": 2813,
      "stia": 2814,
      "stili": 2815,
      "gas": 2816,
      "gari": 2817,
      "quinte": 2818,
      "quanti": 2819,
      "quindi": 2820,
      "quel": 2821,
      "ttima": 2822,
      "ttino": 2823,
      "nera": 2824,
      "neggi": 2825,
      "nello": 2826,
      "nellu": 2827,
      "neutra": 2828,
      "ssivi": 2829,
      "ssimi": 2830,
      "ssitÃł": 2831,
      "pio": 2832,
      "piani": 2833,
      "piÃ¹": 2834,
      "pionieri": 2835,
      "oneri": 2836,
      "terre": 2837,
      "tersi": 2838,
      "chiare": 2839,
      "nar": 2840,
      "nati": 2841,
      "navi": 2842,
      "nascon": 2843,
      "curare": 2844,
      "inaspri": 2845,
      "arco": 2846,
      "armi": 2847,
      "dur": 2848,
      "dure": 2849,
      "durare": 2850,
      "dubbi": 2851,
      "lue": 2852,
      "lui": 2853,
      "lusse": 2854,
      "luglio": 2855,
      "lutilizzo": 2856,
      "accor": 2857,
      "acconten": 2858,
      "ttazione": 2859,
      "ttamento": 2860,
      "ttabile": 2861,
      "ttatura": 2862,
      "gosla": 2863,
      "alitÃł": 2864,
      "alismo": 2865,
      "aliquo": 2866,
      "compo": 2867,
      "compon": 2868,
      "complica": 2869,
      "guada": 2870,
      "persi": 2871,
      "perlo": 2872,
      "permi": 2873,
      "persegu": 2874,
      "permette": 2875,
      "percepi": 2876,
      "persua": 2877,
      "onore": 2878,
      "onostan": 2879,
      "forti": 2880,
      "bei": 2881,
      "belli": 2882,
      "impi": 2883,
      "impu": 2884,
      "impli": 2885,
      "impren": 2886,
      "implica": 2887,
      "impul": 2888,
      "allonta": 2889,
      "appen": 2890,
      "appren": 2891,
      "aprire": 2892,
      "glielo": 2893,
      "ereditÃł": 2894,
      "colto": 2895,
      "coltÃł": 2896,
      "coltori": 2897,
      "coloni": 2898,
      "colanti": 2899,
      "coltura": 2900,
      "anima": 2901,
      "porre": 2902,
      "porte": 2903,
      "portato": 2904,
      "gradu": 2905,
      "face": 2906,
      "fatto": 2907,
      "fatta": 2908,
      "fabb": 2909,
      "unitÃł": 2910,
      "univer": 2911,
      "versi": 2912,
      "verÃł": 2913,
      "vergo": 2914,
      "versione": 2915,
      "vengo": 2916,
      "troppo": 2917,
      "troviamo": 2918,
      "disto": 2919,
      "dispre": 2920,
      "discre": 2921,
      "dissenti": 2922,
      "discipl": 2923,
      "aula": 2924,
      "autore": 2925,
      "autunno": 2926,
      "torie": 2927,
      "bosnia": 2928,
      "ascol": 2929,
      "assente": 2930,
      "assenso": 2931,
      "mando": 2932,
      "mancan": 2933,
      "risco": 2934,
      "rispar": 2935,
      "riscal": 2936,
      "geria": 2937,
      "geogra": 2938,
      "ttezza": 2939,
      "ficate": 2940,
      "ficamente": 2941,
      "ficabili": 2942,
      "inequi": 2943,
      "bat": 2944,
      "bale": 2945,
      "bassi": 2946,
      "battu": 2947,
      "bamb": 2948,
      "batten": 2949,
      "interi": 2950,
      "intesa": 2951,
      "buon": 2952,
      "busti": 2953,
      "privato": 2954,
      "steriale": 2955,
      "trino": 2956,
      "tangi": 2957,
      "comin": 2958,
      "comun": 2959,
      "commer": 2960,
      "combatte": 2961,
      "combusti": 2962,
      "strati": 2963,
      "strato": 2964,
      "strada": 2965,
      "strani": 2966,
      "avesse": 2967,
      "crede": 2968,
      "cresc": 2969,
      "conosc": 2970,
      "riore": 2971,
      "riori": 2972,
      "interne": 2973,
      "intergoverna": 2974,
      "pensare": 2975,
      "pensioni": 2976,
      "pension": 2977,
      "llazione": 2978,
      "mul": 2979,
      "musul": 2980,
      "cendenti": 2981,
      "cese": 2982,
      "ssero": 2983,
      "occiden": 2984,
      "indire": 2985,
      "indiri": 2986,
      "indiff": 2987,
      "critica": 2988,
      "sciamo": 2989,
      "scienti": 2990,
      "urope": 2991,
      "volmente": 2992,
      "pur": 2993,
      "puto": 2994,
      "quis": 2995,
      "quilib": 2996,
      "bbene": 2997,
      "stendo": 2998,
      "utile": 2999,
      "chiarire": 3000,
      "lancio": 3001,
      "landesi": 3002,
      "rende": 3003,
      "dellal": 3004,
      "stanti": 3005,
      "stituzione": 3006,
      "cerca": 3007,
      "cerve": 3008,
      "rativo": 3009,
      "deno": 3010,
      "denuncia": 3011,
      "ratore": 3012,
      "giusta": 3013,
      "giuris": 3014,
      "giuste": 3015,
      "giugno": 3016,
      "ronde": 3017,
      "scar": 3018,
      "trasferi": 3019,
      "trascina": 3020,
      "spin": 3021,
      "alleanza": 3022,
      "esito": 3023,
      "esigenza": 3024,
      "esistente": 3025,
      "euromediterrane": 3026,
      "origine": 3027,
      "agri": 3028,
      "questu": 3029,
      "matici": 3030,
      "fuo": 3031,
      "ltimo": 3032,
      "mercosur": 3033,
      "minimi": 3034,
      "ministeriale": 3035,
      "chieder": 3036,
      "ghese": 3037,
      "gresso": 3038,
      "contratta": 3039,
      "presenta": 3040,
      "presentati": 3041,
      "media": 3042,
      "medicina": 3043,
      "cante": 3044,
      "candi": 3045,
      "fos": 3046,
      "fobia": 3047,
      "immedi": 3048,
      "immin": 3049,
      "lindeboli": 3050,
      "contin": 3051,
      "approfon": 3052,
      "approvvi": 3053,
      "approvazione": 3054,
      "appropria": 3055,
      "feriche": 3056,
      "ferre": 3057,
      "fermare": 3058,
      "rinuncia": 3059,
      "ralismo": 3060,
      "libero": 3061,
      "liberale": 3062,
      "mbito": 3063,
      "mbiente": 3064,
      "ponga": 3065,
      "pongo": 3066,
      "pongano": 3067,
      "valutiamo": 3068,
      "marca": 3069,
      "guardare": 3070,
      "importato": 3071,
      "importazione": 3072,
      "importante": 3073,
      "importanti": 3074,
      "eld": 3075,
      "carb": 3076,
      "carce": 3077,
      "carne": 3078,
      "striali": 3079,
      "erenzia": 3080,
      "avviso": 3081,
      "avvicin": 3082,
      "aiuto": 3083,
      "aiuta": 3084,
      "regioni": 3085,
      "esempio": 3086,
      "periferiche": 3087,
      "comunicar": 3088,
      "comunitari": 3089,
      "aggiorna": 3090,
      "islamico": 3091,
      "ssano": 3092,
      "ssini": 3093,
      "ssenza": 3094,
      "ssante": 3095,
      "schmi": 3096,
      "inflazioni": 3097,
      "infrastruttu": 3098,
      "derÃ²": 3099,
      "direi": 3100,
      "controllo": 3101,
      "parag": 3102,
      "paragra": 3103,
      "paralle": 3104,
      "transi": 3105,
      "tranqui": 3106,
      "transatlanti": 3107,
      "impedis": 3108,
      "impegno": 3109,
      "interessi": 3110,
      "interessante": 3111,
      "ambien": 3112,
      "ambito": 3113,
      "eletto": 3114,
      "manifes": 3115,
      "ricati": 3116,
      "rappresenti": 3117,
      "divise": 3118,
      "politici": 3119,
      "politico": 3120,
      "posizioni": 3121,
      "ttivamente": 3122,
      "piaci": 3123,
      "piace": 3124,
      "piatta": 3125,
      "piacere": 3126,
      "golaritÃł": 3127,
      "organismo": 3128,
      "aritÃł": 3129,
      "urgente": 3130,
      "indubbi": 3131,
      "industriali": 3132,
      "limitati": 3133,
      "giunto": 3134,
      "continue": 3135,
      "addestra": 3136,
      "bbiamo": 3137,
      "etica": 3138,
      "etiopia": 3139,
      "diversi": 3140,
      "diversitÃł": 3141,
      "miliar": 3142,
      "particola": 3143,
      "dentemente": 3144,
      "effetto": 3145,
      "funzione": 3146,
      "geni": 3147,
      "geno": 3148,
      "genze": 3149,
      "lenta": 3150,
      "lenco": 3151,
      "norde": 3152,
      "normati": 3153,
      "sorpren": 3154,
      "ultra": 3155,
      "ulterio": 3156,
      "definizione": 3157,
      "presiden": 3158,
      "presidente": 3159,
      "presiedu": 3160,
      "fornire": 3161,
      "considerare": 3162,
      "afgh": 3163,
      "africa": 3164,
      "affari": 3165,
      "farma": 3166,
      "farmace": 3167,
      "svizze": 3168,
      "uscita": 3169,
      "relazioni": 3170,
      "decisione": 3171,
      "mpliamento": 3172,
      "biettivo": 3173,
      "meridi": 3174,
      "venir": 3175,
      "osservazione": 3176,
      "beni": 3177,
      "cinque": 3178,
      "cinquan": 3179,
      "classi": 3180,
      "elaborare": 3181,
      "elaborazione": 3182,
      "economia": 3183,
      "economico": 3184,
      "economici": 3185,
      "facente": 3186,
      "faccia": 3187,
      "facendo": 3188,
      "lunghe": 3189,
      "ottimo": 3190,
      "ottimi": 3191,
      "ppoggio": 3192,
      "sconcer": 3193,
      "regolari": 3194,
      "regolamentazione": 3195,
      "insieme": 3196,
      "invito": 3197,
      "colato": 3198,
      "colazione": 3199,
      "democra": 3200,
      "legitti": 3201,
      "dicazione": 3202,
      "soldi": 3203,
      "fram": 3204,
      "fragi": 3205,
      "ideo": 3206,
      "mondi": 3207,
      "spazio": 3208,
      "spavento": 3209,
      "studi": 3210,
      "zzando": 3211,
      "energi": 3212,
      "energe": 3213,
      "incarico": 3214,
      "incapacitÃł": 3215,
      "innovazione": 3216,
      "innocenza": 3217,
      "inclusione": 3218,
      "dimostre": 3219,
      "differenzia": 3220,
      "capito": 3221,
      "capitali": 3222,
      "consentirÃł": 3223,
      "esclusione": 3224,
      "acquisto": 3225,
      "fferta": 3226,
      "interrogativo": 3227,
      "orientati": 3228,
      "affida": 3229,
      "ampie": 3230,
      "bert": 3231,
      "feno": 3232,
      "grandi": 3233,
      "scru": 3234,
      "richiede": 3235,
      "tolleranza": 3236,
      "anzitutto": 3237,
      "sistere": 3238,
      "laterale": 3239,
      "esprime": 3240,
      "esprimere": 3241,
      "esamina": 3242,
      "esaminare": 3243,
      "morti": 3244,
      "unciata": 3245,
      "metter": 3246,
      "governo": 3247,
      "formule": 3248,
      "impressione": 3249,
      "assur": 3250,
      "parlamentari": 3251,
      "individuo": 3252,
      "giustizia": 3253,
      "giustifica": 3254,
      "adeguata": 3255,
      "ringraziar": 3256,
      "registrazione": 3257,
      "desidera": 3258,
      "tecnologia": 3259,
      "tecnologie": 3260,
      "sviluppa": 3261,
      "benefici": 3262,
      "fficacia": 3263,
      "iraq": 3264,
      "kistan": 3265,
      "pratica": 3266,
      "sessuali": 3267,
      "scendo": 3268,
      "uomo": 3269,
      "ricev": 3270,
      "riflette": 3271,
      "telefon": 3272,
      "telefoni": 3273,
      "incidente": 3274,
      "sionali": 3275,
      "sionale": 3276,
      "dettagli": 3277,
      "dichiarazione": 3278,
      "catastro": 3279,
      "concreti": 3280,
      "esterno": 3281,
      "esterne": 3282,
      "esterna": 3283,
      "esportazione": 3284,
      "esercitare": 3285,
      "esercizio": 3286,
      "possibili": 3287,
      "sufficienza": 3288,
      "arricchi": 3289,
      "riservati": 3290,
      "pubblico": 3291,
      "pubblici": 3292,
      "pubbliche": 3293,
      "agenda": 3294,
      "soddisfatti": 3295,
      "asilo": 3296,
      "adatta": 3297,
      "identitÃł": 3298,
      "obbligo": 3299,
      "plau": 3300,
      "sanitarie": 3301,
      "indagine": 3302,
      "annuncio": 3303,
      "dipendenza": 3304,
      "lasciata": 3305,
      "semplicemente": 3306,
      "potenziali": 3307,
      "territori": 3308,
      "competitivi": 3309,
      "colloqui": 3310,
      "automobili": 3311,
      "aspetto": 3312,
      "aspetta": 3313,
      "giudizia": 3314,
      "giudizio": 3315,
      "vantaggio": 3316,
      "balcani": 3317,
      "etni": 3318,
      "fronte": 3319,
      "frontali": 3320,
      "hip": 3321,
      "punti": 3322,
      "slova": 3323,
      "sloveni": 3324,
      "uguaglianza": 3325,
      "umanitÃł": 3326,
      "risolto": 3327,
      "comitato": 3328,
      "molda": 3329,
      "bisogna": 3330,
      "palesti": 3331,
      "prossimi": 3332,
      "program": 3333,
      "accoglienza": 3334,
      "competenza": 3335,
      "impossi": 3336,
      "discriminazione": 3337,
      "indipendenza": 3338,
      "questau": 3339,
      "spiega": 3340,
      "sindacali": 3341,
      "eccezione": 3342,
      "eccell": 3343,
      "responsabili": 3344,
      "limportanza": 3345,
      "fondamentali": 3346,
      "equilibrio": 3347,
      "agire": 3348,
      "aereo": 3349,
      "americani": 3350,
      "evasione": 3351,
      "falli": 3352,
      "imballa": 3353,
      "monetari": 3354,
      "offerta": 3355,
      "rienna": 3356,
      "rifiu": 3357,
      "instau": 3358,
      "liquidare": 3359,
      "derivati": 3360,
      "cittadini": 3361,
      "gionamento": 3362,
      "sopravvi": 3363,
      "presuppo": 3364,
      "quanto": 3365,
      "quadro": 3366,
      "pieno": 3367,
      "piccoli": 3368,
      "armonizzazione": 3369,
      "impostazione": 3370,
      "erebbero": 3371,
      "autentica": 3372,
      "interpretazione": 3373,
      "scettici": 3374,
      "trasparenza": 3375,
      "immagine": 3376,
      "elenco": 3377,
      "comunicazioni": 3378,
      "aggiusta": 3379,
      "transfrontali": 3380,
      "estremismo": 3381,
      "introduzione": 3382,
      "culturale": 3383,
      "alternativa": 3384,
      "azien": 3385,
      "frode": 3386,
      "globali": 3387,
      "irreali": 3388,
      "jugosla": 3389,
      "plurienna": 3390,
      "sorgere": 3391,
      "smantella": 3392,
      "redditi": 3393,
      "enorme": 3394,
      "risarci": 3395,
      "ripercuo": 3396,
      "invecchia": 3397,
      "incrementa": 3398,
      "tossicitÃł": 3399,
      "analoga": 3400,
      "deputati": 3401,
      "distingu": 3402,
      "consapevole": 3403,
      "esauri": 3404,
      "moltiplica": 3405,
      "altronde": 3406,
      "altrimenti": 3407,
      "dovesse": 3408,
      "vaccina": 3409,
      "macchina": 3410,
      "metodo": 3411,
      "chiudere": 3412,
      "compagni": 3413,
      "appello": 3414,
      "burocrati": 3415,
      "commemo": 3416,
      "commerciali": 3417,
      "crescere": 3418,
      "cristiani": 3419,
      "carburanti": 3420,
      "esecutivo": 3421,
      "israeli": 3422,
      "africana": 3423,
      "turcociprio": 3424,
      "inadeguate": 3425,
      "edili": 3426,
      "igian": 3427,
      "ipocri": 3428,
      "mmetria": 3429,
      "odier": 3430,
      "ripristi": 3431,
      "inchiesta": 3432,
      "indispensa": 3433,
      "ingegno": 3434,
      "indiscuti": 3435,
      "debole": 3436,
      "decenni": 3437,
      "leserci": 3438,
      "dibatti": 3439,
      "catalizza": 3440,
      "erbaigian": 3441,
      "convergenza": 3442,
      "espul": 3443,
      "sostitui": 3444,
      "unghere": 3445,
      "bielor": 3446,
      "settentri": 3447,
      "statuniten": 3448,
      "lussembu": 3449,
      "onostante": 3450,
      "imprenditori": 3451,
      "allontana": 3452,
      "universitÃł": 3453,
      "risparmi": 3454,
      "inequivoca": 3455,
      "crescente": 3456,
      "conoscenza": 3457,
      "musulman": 3458,
      "quilibrio": 3459,
      "approvvigionamento": 3460,
      "farmaceuti": 3461
    },
    "merges": [
      "r e",
      "o n",
      "e n",
      "r i",
      "t i",
      "t a",
      "t e",
      "r a",
      "i n",
      "t o",
      "l i",
      "z i",
      "c o",
      "a n",
      "s i",
      "d e",
      "l e",
      "zi on",
      "d i",
      "c a",
      "r o",
      "c i",
      "l a",
      "m en",
      "e r",
      "â Ģ",
      "c on",
      "zion e",
      "e s",
      "âĢ Ļ",
      "m o",
      "o r",
      "a l",
      "g i",
      "s o",
      "d o",
      "v i",
      "u n",
      "c h",
      "v a",
      "m p",
      "m a",
      "z a",
      "b i",
      "s e",
      "p a",
      "v o",
      "n o",
      "Ã ł",
      "l o",
      "t ra",
      "s a",
      "p re",
      "t u",
      "m i",
      "d a",
      "p ro",
      "f i",
      "c e",
      "t en",
      "de l",
      "men te",
      "p o",
      "p e",
      "s u",
      "v e",
      "s ta",
      "m e",
      "s ti",
      "g a",
      "q u",
      "t ti",
      "n e",
      "s si",
      "p i",
      "t Ãł",
      "on e",
      "te r",
      "ch i",
      "n a",
      "men to",
      "c u",
      "in a",
      "a r",
      "d u",
      "l u",
      "a c",
      "t to",
      "t ta",
      "z za",
      "an o",
      "g o",
      "s t",
      "a li",
      "ra n",
      "zion i",
      "a mo",
      "in i",
      "co mp",
      "g u",
      "p er",
      "on o",
      "en ti",
      "f or",
      "b e",
      "i mp",
      "g gi",
      "al l",
      "a p",
      "g li",
      "ri a",
      "e re",
      "n i",
      "zi a",
      "co l",
      "an i",
      "co r",
      "del l",
      "p or",
      "g ra",
      "en te",
      "f a",
      "r u",
      "un i",
      "v er",
      "bi li",
      "v en",
      "t ro",
      "di s",
      "a u",
      "to ri",
      "ch e",
      "on i",
      "f f",
      "b o",
      "a s",
      "m an",
      "ri s",
      "g e",
      "t te",
      "fi ca",
      "en za",
      "in e",
      "ci a",
      "b a",
      "in te",
      "b u",
      "p ri",
      "s te",
      "t ri",
      "t tu",
      "ta n",
      "co m",
      "s tra",
      "de re",
      "a v",
      "c re",
      "si one",
      "pa r",
      "f e",
      "l l",
      "ta re",
      "con o",
      "r Ãł",
      "s en",
      "a le",
      "ri o",
      "in ter",
      "men ti",
      "p en",
      "l la",
      "m u",
      "c en",
      "en e",
      "ti va",
      "a m",
      "c es",
      "z e",
      "an ti",
      "an do",
      "bi le",
      "s se",
      "b be",
      "o c",
      "in di",
      "c ri",
      "s ci",
      "u ro",
      "in o",
      "vo l",
      "l le",
      "n u",
      "p u",
      "s er",
      "s pe",
      "ta to",
      "qu i",
      "st ru",
      "a re",
      "b b",
      "m ina",
      "r si",
      "ra re",
      "s sa",
      "s ten",
      "u ti",
      "chi a",
      "f fi",
      "g na",
      "l an",
      "s ce",
      "re n",
      "men ta",
      "del la",
      "s to",
      "re bbe",
      "sta n",
      "sti tu",
      "a to",
      "c er",
      "ra ti",
      "al la",
      "tu ra",
      "ggi o",
      "d en",
      "g no",
      "o p",
      "ra to",
      "li ca",
      "gi u",
      "for ma",
      "r on",
      "s ca",
      "tra s",
      "ran no",
      "m b",
      "s p",
      "u to",
      "al le",
      "zza zione",
      "a zione",
      "e si",
      "e uro",
      "o ri",
      "âĢ Ŀ",
      "a g",
      "c lu",
      "t ten",
      "ra zione",
      "co lo",
      "la re",
      "qu es",
      "f in",
      "m es",
      "t re",
      "ri e",
      "ma ti",
      "vo le",
      "f u",
      "l ti",
      "m er",
      "m ini",
      "r ci",
      "s mo",
      "s so",
      "s pi",
      "ci o",
      "se gu",
      "ne ll",
      "a ff",
      "f on",
      "l li",
      "chi e",
      "d enti",
      "g h",
      "g re",
      "re mo",
      "ta ti",
      "ta li",
      "le ga",
      "con tra",
      "or d",
      "lo gi",
      "pre sen",
      "me di",
      "gli o",
      "oc cu",
      "a ta",
      "a de",
      "c an",
      "f o",
      "i m",
      "l in",
      "s in",
      "z o",
      "ta zione",
      "ca re",
      "con ti",
      "con si",
      "ap pro",
      "fe ri",
      "a ti",
      "d ono",
      "d all",
      "f er",
      "l mente",
      "s enti",
      "Ã ©",
      "ri n",
      "ra li",
      "to re",
      "li be",
      "zi o",
      "or g",
      "mp i",
      "ap p",
      "a ssi",
      "g ono",
      "g ge",
      "m in",
      "m bi",
      "p on",
      "v es",
      "v al",
      "Ã ²",
      "ma r",
      "pre n",
      "gu ar",
      "imp or",
      "e l",
      "g ene",
      "i re",
      "en do",
      "ta no",
      "ca r",
      "ca to",
      "st ri",
      "ere n",
      "bili tÃł",
      "tri bu",
      "av vi",
      "ffi ci",
      "a i",
      "a mento",
      "c co",
      "g ere",
      "re gi",
      "an te",
      "di amo",
      "la bo",
      "es e",
      "al mente",
      "so tto",
      "sa re",
      "da re",
      "del le",
      "pe ri",
      "ve re",
      "com uni",
      "a ggi",
      "a ttu",
      "i s",
      "l lo",
      "s s",
      "s ch",
      "u ta",
      "ti vi",
      "in f",
      "in forma",
      "an za",
      "an zia",
      "de r",
      "di re",
      "ro ga",
      "con tro",
      "pa ra",
      "tra n",
      "ve ri",
      "tti vo",
      "ran ti",
      "imp e",
      "inte re",
      "tan do",
      "am bi",
      "ces si",
      "ser va",
      "e le",
      "f ini",
      "g er",
      "g ni",
      "m ani",
      "r re",
      "ri ca",
      "ti ve",
      "ta ta",
      "ra p",
      "ra no",
      "de si",
      "zion ali",
      "di vi",
      "âĢ ľ",
      "gi a",
      "gi o",
      "so sten",
      "po li",
      "po si",
      "qu e",
      "tti va",
      "ssi one",
      "pi a",
      "go la",
      "st ria",
      "ran do",
      "ini zia",
      "uni one",
      "fin anzia",
      "occu pa",
      "org ani",
      "a ri",
      "a te",
      "a do",
      "c ina",
      "o s",
      "r ga",
      "u r",
      "v in",
      "v ano",
      "ti vo",
      "ta te",
      "ta mente",
      "te mp",
      "in ten",
      "in du",
      "li mi",
      "gi un",
      "su l",
      "ac ce",
      "ff e",
      "inte gra",
      "bb li",
      "conti nu",
      "0 0",
      "a d",
      "a t",
      "b bi",
      "e ti",
      "s co",
      "v an",
      "ri co",
      "ta le",
      "ra le",
      "in g",
      "si oni",
      "di o",
      "di ver",
      "la vo",
      "con f",
      "al lo",
      "mi li",
      "pro du",
      "tti vi",
      "comp i",
      "dis cu",
      "par ti",
      "cono mi",
      "a tten",
      "c ano",
      "d ano",
      "d ente",
      "e li",
      "e ffe",
      "f un",
      "g en",
      "g enza",
      "i stitu",
      "l en",
      "n or",
      "o pe",
      "o sta",
      "s or",
      "u l",
      "v vi",
      "re ali",
      "re vole",
      "ta ri",
      "te c",
      "ra f",
      "li b",
      "co stitu",
      "de fini",
      "ca mente",
      "va ti",
      "pre si",
      "da to",
      "ssi mo",
      "ac cu",
      "for ni",
      "cor do",
      "bo li",
      "as so",
      "ris pe",
      "cen tra",
      "sten za",
      "uti li",
      "consi de",
      "a f",
      "d enza",
      "e c",
      "e vi",
      "f ar",
      "g ano",
      "m oni",
      "p es",
      "s on",
      "s an",
      "s vi",
      "s cri",
      "u sci",
      "z zo",
      "re la",
      "re sp",
      "en tra",
      "ri re",
      "ra ggi",
      "de ci",
      "zion ale",
      "ci tÃł",
      "con ten",
      "con tribu",
      "do v",
      "mp li",
      "ma re",
      "bi e",
      "se gna",
      "tu r",
      "da ti",
      "da mento",
      "su ll",
      "me ri",
      "ga ranti",
      "ne lla",
      "ter Ãł",
      "st re",
      "cor re",
      "ven i",
      "app lica",
      "inizia tiva",
      "os serva",
      "raf for",
      "b re",
      "b en",
      "c in",
      "c la",
      "c chi",
      "c ani",
      "d on",
      "d an",
      "e ra",
      "e labo",
      "e conomi",
      "f le",
      "f ac",
      "g ina",
      "i o",
      "l un",
      "o tti",
      "p po",
      "s con",
      "t un",
      "t ono",
      "u lti",
      "z zi",
      "Ã ¨",
      "re gola",
      "ti ci",
      "in si",
      "in vi",
      "li mp",
      "co la",
      "co stru",
      "si a",
      "de mo",
      "de ter",
      "le gi",
      "di a",
      "di ca",
      "ca l",
      "ca u",
      "la ti",
      "con divi",
      "so l",
      "vi a",
      "pa re",
      "vo li",
      "tra tta",
      "tu re",
      "del lu",
      "sta bili",
      "me tte",
      "cu ra",
      "zza re",
      "comp le",
      "au tori",
      "par te",
      "ces so",
      "stru ttu",
      "menta zione",
      "ord ina",
      "b an",
      "b ar",
      "c un",
      "c rati",
      "f ra",
      "g es",
      "g ine",
      "i de",
      "l lu",
      "l ine",
      "m on",
      "m mo",
      "o ra",
      "o bie",
      "p pi",
      "s pa",
      "s tu",
      "s vol",
      "t h",
      "z z",
      "en er",
      "ri to",
      "ri ten",
      "ri tÃł",
      "ri chi",
      "ri col",
      "ri cor",
      "ri vol",
      "ti ca",
      "ta ria",
      "ta rio",
      "in ca",
      "in no",
      "in clu",
      "li tÃł",
      "an no",
      "de rÃł",
      "di mo",
      "di ven",
      "di ff",
      "ca pi",
      "ca mbi",
      "ci r",
      "er Ãł",
      "con senti",
      "es a",
      "es clu",
      "vi o",
      "ch Ã©",
      "va re",
      "bi o",
      "se mb",
      "vo ca",
      "pre ci",
      "su c",
      "sti ca",
      "ac qui",
      "zza to",
      "st ro",
      "comp ren",
      "ono revole",
      "fa vo",
      "ff er",
      "fica zione",
      "inter roga",
      "ces sa",
      "indi ca",
      "spe ci",
      "rebbe ro",
      "alla rga",
      "den do",
      "op por",
      "euro pa",
      "ori en",
      "mes so",
      "fon da",
      "ves ti",
      "rap presen",
      "parte ci",
      "a mente",
      "a ffi",
      "a mpi",
      "b er",
      "d di",
      "d al",
      "d dis",
      "e ri",
      "f en",
      "g ran",
      "h o",
      "i r",
      "m ma",
      "m ano",
      "r le",
      "r lo",
      "s c",
      "s al",
      "s chi",
      "t uni",
      "u so",
      "ri man",
      "ri cono",
      "ri chie",
      "ri guar",
      "ri usci",
      "ra zioni",
      "to lle",
      "an zi",
      "si ste",
      "de sti",
      "de boli",
      "la te",
      "la zione",
      "la zioni",
      "er ci",
      "con cor",
      "con segu",
      "es se",
      "es pri",
      "es am",
      "es tre",
      "mo r",
      "so li",
      "so lle",
      "so ddis",
      "do tto",
      "vi e",
      "vi du",
      "un to",
      "un cia",
      "va to",
      "va mo",
      "bi lmente",
      "no logi",
      "mi gli",
      "mi gra",
      "mi glio",
      "pro te",
      "del lo",
      "po te",
      "su pe",
      "su lla",
      "sta re",
      "me t",
      "sti che",
      "ga re",
      "qu al",
      "tti ve",
      "ssi oni",
      "tto ri",
      "zza te",
      "go ver",
      "ini one",
      "gu i",
      "for mu",
      "imp re",
      "ap por",
      "zia le",
      "col lega",
      "au spi",
      "as su",
      "tan te",
      "par la",
      "mu o",
      "indi vidu",
      "cri mina",
      "giu sti",
      "mini stra",
      "aff er",
      "aff ron",
      "ord ine",
      "ade gu",
      "rin gra",
      "regi stra",
      "informa zione",
      "veri fica",
      "desi de",
      "tec nologi",
      "costitu i",
      "svi lu",
      "a ra",
      "a bb",
      "b ene",
      "c ra",
      "e du",
      "e qui",
      "f fica",
      "g n",
      "g enti",
      "i ra",
      "k i",
      "m al",
      "m ine",
      "p p",
      "p ra",
      "p lo",
      "p rati",
      "p ron",
      "s es",
      "s cia",
      "s cen",
      "u e",
      "u o",
      "ri le",
      "ri di",
      "ri ce",
      "ri du",
      "ri amo",
      "ri feri",
      "ri fle",
      "ti co",
      "ti colo",
      "ta rsi",
      "te le",
      "ra ta",
      "ra mente",
      "in co",
      "in ci",
      "in vol",
      "an ali",
      "si on",
      "de tta",
      "di ce",
      "di chia",
      "ca ta",
      "la c",
      "con ce",
      "con cre",
      "con giun",
      "con centra",
      "es te",
      "es ter",
      "es por",
      "es erci",
      "mo di",
      "so ci",
      "va ta",
      "ma to",
      "pa ssa",
      "vo lu",
      "sa mente",
      "pre occupa",
      "pro spe",
      "fi che",
      "po ssi",
      "po ste",
      "su ffici",
      "sta ti",
      "me re",
      "qu o",
      "ne go",
      "na re",
      "na zionali",
      "ar ri",
      "ar go",
      "tta re",
      "zza ti",
      "zza ta",
      "per tura",
      "col pi",
      "por to",
      "ver sa",
      "ris er",
      "ris pon",
      "tan ti",
      "tan za",
      "cre di",
      "am ministra",
      "pu bbli",
      "stru zione",
      "mina re",
      "ag en",
      "ques t",
      "mer ci",
      "gh i",
      "aggi un",
      "inf lu",
      "intere sse",
      "sosten i",
      "ttivi tÃł",
      "demo crati",
      "ricol tura",
      "soddis fa",
      "a si",
      "a bi",
      "a da",
      "a tto",
      "a tte",
      "c ca",
      "c ci",
      "c enti",
      "c ando",
      "c chia",
      "c cio",
      "f es",
      "f ru",
      "g ne",
      "i a",
      "i denti",
      "i tali",
      "m ono",
      "m ino",
      "n es",
      "o re",
      "o bbli",
      "p an",
      "p la",
      "r li",
      "r ne",
      "r ono",
      "s la",
      "s ani",
      "s ente",
      "Ã ¬",
      "ri pe",
      "ta mento",
      "ta zioni",
      "ra gi",
      "ra cco",
      "in se",
      "in da",
      "in tro",
      "in vesti",
      "li zzazione",
      "zi e",
      "zi ali",
      "co gli",
      "co stan",
      "co invol",
      "an n",
      "si tÃł",
      "si gni",
      "le a",
      "di ri",
      "di sa",
      "di tÃł",
      "di pen",
      "ro ri",
      "ci li",
      "la ri",
      "la scia",
      "men o",
      "men damento",
      "con clu",
      "con vin",
      "mo bili",
      "or na",
      "so stan",
      "va li",
      "va zione",
      "va mente",
      "ma ri",
      "ma te",
      "ma ssi",
      "se gre",
      "se mpli",
      "pa ci",
      "sa pe",
      "pre vi",
      "pre ve",
      "mi ssione",
      "pro por",
      "pro pri",
      "pro gre",
      "fi ci",
      "fi ssa",
      "ce pi",
      "ten do",
      "del li",
      "po ten",
      "su d",
      "ve ro",
      "sti co",
      "sti ci",
      "qu ali",
      "ter ri",
      "ter ra",
      "cu l",
      "ina re",
      "ac cordo",
      "tta to",
      "tta mente",
      "ran za",
      "ini zio",
      "comp or",
      "comp eti",
      "ria mente",
      "col lo",
      "cor so",
      "gra tu",
      "ven to",
      "ven ire",
      "au to",
      "tori o",
      "as pe",
      "cia re",
      "tri ci",
      "ttu ale",
      "fe de",
      "sen so",
      "pen sa",
      "pu bb",
      "ren te",
      "giu di",
      "ori gina",
      "mes si",
      "mati co",
      "segu i",
      "chie de",
      "sotto line",
      "posi zione",
      "indu stria",
      "integra zione",
      "van ta",
      "effe ttu",
      "fun zion",
      "asso cia",
      "raffor za",
      "mette re",
      "ges ti",
      "dimo stra",
      "migra zione",
      "inco raggi",
      "signi fica",
      "pubb lica",
      "a zioni",
      "a gli",
      "a ttiva",
      "a bbi",
      "b al",
      "c k",
      "c li",
      "c ro",
      "c ente",
      "c che",
      "d one",
      "e t",
      "e x",
      "e co",
      "e lo",
      "e ten",
      "e ffici",
      "f re",
      "f ran",
      "f ron",
      "g ente",
      "h i",
      "i e",
      "k o",
      "n ci",
      "n do",
      "p un",
      "p pa",
      "p pe",
      "p one",
      "p oni",
      "s lo",
      "s pre",
      "s ter",
      "s for",
      "s cono",
      "u te",
      "u sa",
      "u gu",
      "u mani",
      "v ono",
      "v enti",
      "z ze",
      "Ã ¹",
      "Ã ¼",
      "re li",
      "on a",
      "on sa",
      "ri ti",
      "ri ta",
      "ri con",
      "ri uni",
      "ri sul",
      "ri sol",
      "ta l",
      "ra te",
      "ra pi",
      "ra ggio",
      "in to",
      "in qu",
      "in deboli",
      "co li",
      "co mi",
      "an da",
      "si d",
      "de a",
      "di ta",
      "di menti",
      "di stru",
      "di fen",
      "ca li",
      "la to",
      "men zion",
      "men tare",
      "con ta",
      "con su",
      "con cer",
      "con temp",
      "con gratu",
      "es ta",
      "es pre",
      "mo l",
      "al tra",
      "al ter",
      "al tro",
      "so lu",
      "do tte",
      "vi ta",
      "vi si",
      "vi gi",
      "vi amo",
      "un que",
      "va ria",
      "ma ggio",
      "bi a",
      "bi so",
      "pa le",
      "pa ga",
      "no ti",
      "tra du",
      "pre sa",
      "pre ce",
      "tu tto",
      "mi su",
      "pro mo",
      "pro ce",
      "pro ssi",
      "pro gra",
      "fi r",
      "fi co",
      "po po",
      "po sti",
      "pe ra",
      "su gge",
      "sti n",
      "tti amo",
      "ne cessa",
      "ssi a",
      "ter rori",
      "chi o",
      "ar si",
      "ac ca",
      "ac col",
      "ac cogli",
      "tta no",
      "comp en",
      "comp eten",
      "for me",
      "imp o",
      "ggi a",
      "ap pre",
      "ap po",
      "ere mo",
      "ani a",
      "cor si",
      "por ti",
      "por ta",
      "fa re",
      "dis crimina",
      "au stria",
      "ris ce",
      "ris cono",
      "fica re",
      "cia le",
      "ba sa",
      "ba tte",
      "inte ro",
      "pri ma",
      "pri nci",
      "ttu ra",
      "com mi",
      "stra te",
      "oc ca",
      "indi pen",
      "nu o",
      "nu tri",
      "pu re",
      "lan da",
      "op inione",
      "euro pe",
      "ques ta",
      "spi e",
      "gh e",
      "ade sione",
      "sin da",
      "feri to",
      "fer ro",
      "app li",
      "assi cu",
      "pren de",
      "pren dere",
      "eren za",
      "avvi cina",
      "peri colo",
      "attu azione",
      "impe gna",
      "ger Ãł",
      "conf ron",
      "ec ce",
      "resp onsa",
      "bre ve",
      "ulti ma",
      "limp or",
      "deter mina",
      "obie ttivo",
      "ener gia",
      "esclu si",
      "suc cessi",
      "interroga zione",
      "allarga mento",
      "fonda menta",
      "tuni tÃł",
      "desti na",
      "edu ca",
      "equi lib",
      "nego zia",
      "a b",
      "a gi",
      "a ve",
      "a tta",
      "a per",
      "a ere",
      "a gna",
      "a meri",
      "b ri",
      "b or",
      "b lo",
      "c le",
      "c cu",
      "c ini",
      "c care",
      "c cani",
      "d s",
      "d ina",
      "d ini",
      "d ando",
      "d alle",
      "e ta",
      "e va",
      "e pi",
      "e tÃł",
      "e man",
      "e ffica",
      "f al",
      "g ro",
      "g endo",
      "g gere",
      "h u",
      "h ar",
      "i gno",
      "i mb",
      "i llu",
      "i struzione",
      "l on",
      "l or",
      "l ga",
      "l tro",
      "m one",
      "n on",
      "o ff",
      "o tten",
      "o gge",
      "o ffer",
      "p h",
      "p ria",
      "p lica",
      "r la",
      "r vi",
      "r mi",
      "r go",
      "r oni",
      "r ticolo",
      "s ano",
      "s comp",
      "s enza",
      "s fru",
      "s Ã¬",
      "t l",
      "t t",
      "v or",
      "w e",
      "Ã ¡",
      "re i",
      "re si",
      "re ci",
      "re so",
      "re cu",
      "re cepi",
      "on ali",
      "on ale",
      "ri en",
      "ri fi",
      "ri ve",
      "ri ba",
      "ri cer",
      "ti li",
      "ta sse",
      "ta lmente",
      "te zza",
      "te rio",
      "ra tori",
      "ra tte",
      "ra dica",
      "in tra",
      "in sta",
      "to r",
      "li o",
      "li qui",
      "zi almente",
      "co le",
      "co finanzia",
      "co stre",
      "co ordina",
      "co sid",
      "an a",
      "an co",
      "an ni",
      "si e",
      "si to",
      "de ri",
      "de bi",
      "de se",
      "de plo",
      "di ci",
      "di zione",
      "di mento",
      "di zioni",
      "di min",
      "ca ratte",
      "ro me",
      "ci tta",
      "la f",
      "la sci",
      "men i",
      "con te",
      "con du",
      "con ven",
      "con serva",
      "con sul",
      "con dan",
      "con soli",
      "es en",
      "es or",
      "es so",
      "es sen",
      "es ser",
      "es peri",
      "mo da",
      "mo tiva",
      "al o",
      "al ta",
      "al cun",
      "gi on",
      "so pra",
      "vi sione",
      "va r",
      "va te",
      "ma le",
      "ma zione",
      "ma ce",
      "se tti",
      "pa ri",
      "pa zione",
      "vo gli",
      "no te",
      "tra gi",
      "pre pa",
      "pre su",
      "pre sta",
      "mi tÃł",
      "da ta",
      "da li",
      "pro vo",
      "pro voca",
      "pro muo",
      "pro fes",
      "ce re",
      "ce mente",
      "ten er",
      "del ine",
      "po sta",
      "po ter",
      "po sto",
      "su ra",
      "su ali",
      "su per",
      "su lle",
      "sta to",
      "me ccani",
      "ga ran",
      "qu a",
      "qu an",
      "qu ad",
      "ne ga",
      "ne cessi",
      "pi en",
      "pi cco",
      "na zionale",
      "cu zione",
      "ina de",
      "ina mento",
      "ar moni",
      "du to",
      "ac ci",
      "ac cesso",
      "tto re",
      "tta ta",
      "zza zioni",
      "zza rsi",
      "ran ze",
      "comp li",
      "per pe",
      "per son",
      "be l",
      "imp on",
      "imp osta",
      "ria le",
      "ere bbe",
      "ni a",
      "col labo",
      "cor po",
      "gra do",
      "ente mente",
      "uni ca",
      "ven tu",
      "ven uto",
      "dis poni",
      "au ten",
      "as semb",
      "man te",
      "man gi",
      "ge vo",
      "fica ta",
      "fica to",
      "ba si",
      "ste re",
      "tri ce",
      "tan to",
      "tan ni",
      "inter pre",
      "pen ali",
      "lla re",
      "mu lti",
      "cen to",
      "cen do",
      "tiva mente",
      "anti ci",
      "oc corre",
      "cri ti",
      "sci uto",
      "uro pa",
      "vol ta",
      "ser vi",
      "ffi cio",
      "sce tti",
      "menta ri",
      "stan zia",
      "giu ridi",
      "forma zione",
      "tras pa",
      "ag ricoltura",
      "ques ti",
      "mati ca",
      "contra ddi",
      "can a",
      "im ma",
      "fer ma",
      "rin no",
      "libe rali",
      "mpi o",
      "assi cura",
      "pon gono",
      "val u",
      "val uta",
      "el en",
      "gene rali",
      "eren ze",
      "comuni ca",
      "aggi u",
      "contro ver",
      "tran s",
      "intere ssa",
      "ambi ente",
      "occupa zione",
      "organi zzazione",
      "inten si",
      "00 0",
      "eli mina",
      "tec ni",
      "accu sa",
      "accu mu",
      "rispe tta",
      "ec cessi",
      "evi den",
      "resp in",
      "raggi un",
      "contribu i",
      "applica zione",
      "ide a",
      "ora ne",
      "oppor tunitÃł",
      "estre mi",
      "ringra zia",
      "abb an",
      "anali si",
      "soci ali",
      "volu zione",
      "influ enza",
      "racco man",
      "intro du",
      "progre ssi",
      "terra ne",
      "cul tura",
      "associa zione",
      "reli gio",
      "rita r",
      "congratu la",
      "alter na",
      "strate gi",
      "dimin u",
      "assemb lea",
      "a zi",
      "a ce",
      "a tti",
      "a bo",
      "a rio",
      "a boli",
      "a mpli",
      "a gevo",
      "b on",
      "b ra",
      "b le",
      "b ac",
      "b ali",
      "b ru",
      "c ch",
      "c col",
      "c cia",
      "c anti",
      "c cato",
      "c cordo",
      "d t",
      "d ri",
      "d ra",
      "d ino",
      "d alla",
      "e d",
      "e u",
      "e to",
      "e ro",
      "e me",
      "e colo",
      "e mer",
      "e logi",
      "e mendamento",
      "e ventu",
      "f ro",
      "f ina",
      "f ino",
      "g g",
      "g an",
      "g lo",
      "g ando",
      "g gono",
      "g ger",
      "g ricoltura",
      "h a",
      "i ti",
      "i ta",
      "i ca",
      "i sta",
      "i amo",
      "i lle",
      "i rre",
      "j u",
      "k a",
      "k in",
      "l ino",
      "l tre",
      "m s",
      "m bo",
      "m bu",
      "n er",
      "n ente",
      "o le",
      "o lo",
      "o spi",
      "p l",
      "p li",
      "p le",
      "p pro",
      "p lu",
      "p por",
      "p inione",
      "p pure",
      "r s",
      "r mente",
      "r Ã²",
      "s h",
      "s k",
      "s un",
      "s fi",
      "s ve",
      "s por",
      "s tori",
      "s pen",
      "s fu",
      "s org",
      "s mante",
      "u t",
      "u me",
      "u mento",
      "u man",
      "v ve",
      "v ina",
      "v ani",
      "v uo",
      "w o",
      "w al",
      "Ã ¶",
      "re a",
      "re zza",
      "re pu",
      "re mmo",
      "re ddi",
      "on ta",
      "en or",
      "en ze",
      "ri es",
      "ri sa",
      "ri per",
      "ri fe",
      "ri rÃł",
      "ri chia",
      "ri forma",
      "ri fu",
      "ri ves",
      "ri struttu",
      "ri solu",
      "ti n",
      "ti amo",
      "ta rie",
      "te ri",
      "te la",
      "te mente",
      "te remo",
      "ra ga",
      "ra mento",
      "ra rsi",
      "ra lmente",
      "in n",
      "in ta",
      "in er",
      "in con",
      "in va",
      "in ve",
      "in cre",
      "in fe",
      "in contra",
      "to ssi",
      "li sta",
      "li sti",
      "li dea",
      "zi ar",
      "co sci",
      "co sto",
      "co lare",
      "co eren",
      "co raggio",
      "an ne",
      "an ze",
      "an alo",
      "si g",
      "si zione",
      "si tu",
      "si cu",
      "si stenza",
      "de va",
      "de tti",
      "de tto",
      "de stra",
      "de pu",
      "de libe",
      "de scri",
      "le i",
      "le r",
      "le s",
      "le tte",
      "di e",
      "di te",
      "di so",
      "di tori",
      "di plo",
      "di stin",
      "ca ti",
      "ca mp",
      "ro re",
      "ro so",
      "ci vi",
      "ci as",
      "ci pri",
      "men tato",
      "con sen",
      "con nes",
      "con sape",
      "es si",
      "es sa",
      "es ten",
      "es au",
      "mo re",
      "mo du",
      "mo lti",
      "al t",
      "al ti",
      "al tri",
      "al tre",
      "gi mento",
      "gi amo",
      "gi orna",
      "so v",
      "so la",
      "so spe",
      "so gge",
      "do cu",
      "do ves",
      "vi ene",
      "va c",
      "va le",
      "ma i",
      "ma cch",
      "bi lan",
      "se pa",
      "se tte",
      "pa ti",
      "pa ro",
      "pa citÃł",
      "no ve",
      "lo tta",
      "tra ver",
      "pre so",
      "pre se",
      "pre sti",
      "pre senti",
      "pre ssione",
      "tu s",
      "tu ri",
      "tu tta",
      "mi a",
      "mi e",
      "mi co",
      "mi ci",
      "mi amo",
      "mi ssioni",
      "da r",
      "da zione",
      "da mente",
      "da zioni",
      "pro ge",
      "pro segu",
      "pro veni",
      "pro ble",
      "pro vve",
      "fi a",
      "fi si",
      "fi tto",
      "ten uto",
      "del limp",
      "po t",
      "po tre",
      "po ss",
      "pe ggio",
      "su a",
      "su b",
      "su r",
      "su on",
      "su bi",
      "su ssi",
      "su sci",
      "ve d",
      "ve ra",
      "ve lo",
      "sta no",
      "me to",
      "me ro",
      "me tten",
      "sti mo",
      "ga r",
      "ga to",
      "ga li",
      "ga le",
      "ga zione",
      "qu ente",
      "tti me",
      "ne si",
      "ne lli",
      "ssi on",
      "ssi li",
      "ssi ma",
      "pi c",
      "pi to",
      "pi an",
      "ter Ã²",
      "chi u",
      "na tura",
      "cu i",
      "cu o",
      "cu r",
      "cu rio",
      "ar ti",
      "ar ticolo",
      "du ti",
      "du ra",
      "lu o",
      "ac comp",
      "ac cia",
      "ac cer",
      "tto bre",
      "go glio",
      "st ono",
      "ran te",
      "comp ro",
      "comp ag",
      "comp ati",
      "gu e",
      "per me",
      "per man",
      "per fe",
      "per met",
      "for tun",
      "imp ri",
      "imp ie",
      "ap pa",
      "ap pe",
      "gli a",
      "gli e",
      "gli ere",
      "col le",
      "col pe",
      "col tiva",
      "cor te",
      "cor rispon",
      "cor rono",
      "gra vi",
      "fa ri",
      "fa tti",
      "fa mili",
      "fa migli",
      "fa cili",
      "ven do",
      "au gu",
      "au menti",
      "au menta",
      "au tono",
      "oni eri",
      "bo ur",
      "as sa",
      "ris mo",
      "ris chi",
      "fica ti",
      "ine vita",
      "ba rome",
      "inte ra",
      "bu ro",
      "bu lga",
      "pri gi",
      "pri ori",
      "pri vati",
      "ste ro",
      "ttu azione",
      "com me",
      "com merci",
      "av ver",
      "av ven",
      "av anza",
      "cre sce",
      "cono sce",
      "inter ro",
      "inter no",
      "inter vento",
      "lla rga",
      "mu tu",
      "sse gna",
      "cri sti",
      "nu cle",
      "nu mero",
      "spe ri",
      "sten te",
      "uti amo",
      "chia ri",
      "lan dia",
      "lan dese",
      "sce l",
      "ren za",
      "stan do",
      "stan za",
      "ato re",
      "den ze",
      "op zione",
      "lica zione",
      "sca mbi",
      "tras forma",
      "mb re",
      "esi ste",
      "ag rico",
      "mes se",
      "mes sa",
      "rie tÃł",
      "mati che",
      "fu sione",
      "mer si",
      "logi co",
      "medi o",
      "medi terrane",
      "ata mente",
      "can ce",
      "fo lli",
      "im migrazione",
      "lin gui",
      "sin ce",
      "sin go",
      "zo o",
      "consi dere",
      "appro ccio",
      "assi stenza",
      "impor tanza",
      "gene ri",
      "gene ro",
      "car bu",
      "stri bu",
      "avvi o",
      "ai u",
      "ese cu",
      "sotto scri",
      "delle uro",
      "attu ale",
      "is ra",
      "is cono",
      "roga re",
      "veri fi",
      "ambi zio",
      "ger si",
      "zionali tÃł",
      "ado pe",
      "ado tta",
      "ur genza",
      "temp orane",
      "acce le",
      "at tribu",
      "at traver",
      "lavo ra",
      "conomi a",
      "atten zione",
      "istitu zione",
      "nor ma",
      "asso lu",
      "utili zzo",
      "af ri",
      "moni to",
      "san ci",
      "entra ta",
      "tur co",
      "corre re",
      "osserva torio",
      "raffor z",
      "fle ssi",
      "otti ma",
      "tun no",
      "ulti mo",
      "deter min",
      "legi sla",
      "autori tÃł",
      "spa gno",
      "zz ano",
      "richi amo",
      "inno va",
      "cir costan",
      "bio logi",
      "preci pi",
      "suc ce",
      "favo re",
      "oppor tun",
      "parteci p",
      "parteci pa",
      "ampi a",
      "gran de",
      "sal va",
      "ricono sce",
      "riguar da",
      "tolle ra",
      "late rali",
      "esse re",
      "esam in",
      "estre ma",
      "gover na",
      "auspi ca",
      "affer ma",
      "svilu ppo",
      "bene fi",
      "cra ina",
      "argo mento",
      "agen zia",
      "democrati ci",
      "abi tu",
      "itali a",
      "mono poli",
      "nes sun",
      "ragi one",
      "lascia to",
      "propri e",
      "vanta ggi",
      "agli anza",
      "effici enza",
      "inqu inamento",
      "progra mma",
      "compen sa",
      "appo ggi",
      "commi ssa",
      "occa sione",
      "ferro via",
      "educa zione",
      "bri tanni",
      "ccu pazione",
      "epi zoo",
      "tl anti",
      "reci pro",
      "recu pe",
      "tili zzo",
      "caratte ri",
      "esperi enza",
      "setti man",
      "inade gu",
      "rinno va",
      "eviden zia",
      "abban don",
      "ecolo gi",
      "rifu gi",
      "cias cun",
      "cipri o",
      "accomp agna",
      "barome tro",
      "llarga mento",
      "a h",
      "a y",
      "a z",
      "a ro",
      "a ci",
      "a go",
      "a ria",
      "a ver",
      "a tro",
      "a bu",
      "a bile",
      "a gno",
      "a ttivi",
      "a pertura",
      "a ttivitÃł",
      "a ero",
      "a cui",
      "b ro",
      "b ina",
      "b ano",
      "b as",
      "b ania",
      "c s",
      "c se",
      "c ce",
      "c enza",
      "c ine",
      "c lan",
      "c chie",
      "c cano",
      "c cesso",
      "c roni",
      "d in",
      "d ro",
      "d do",
      "d da",
      "d oni",
      "d ine",
      "d Ã©",
      "d ante",
      "d allo",
      "e a",
      "e m",
      "e te",
      "e de",
      "e di",
      "e vo",
      "e go",
      "e tte",
      "e gno",
      "e mb",
      "e min",
      "e cco",
      "e voluzione",
      "f an",
      "f oni",
      "f ine",
      "f eren",
      "f rica",
      "g k",
      "g ini",
      "g ani",
      "g ru",
      "g anti",
      "h en",
      "h anno",
      "i l",
      "i te",
      "i to",
      "i co",
      "i ro",
      "i gi",
      "i po",
      "i tÃł",
      "i mento",
      "i ran",
      "i ll",
      "i sce",
      "i pote",
      "j e",
      "j o",
      "k en",
      "k is",
      "k ara",
      "l Ã",
      "l ando",
      "l unione",
      "m c",
      "m un",
      "m be",
      "m ba",
      "m Ã©",
      "m met",
      "m migrazione",
      "n ano",
      "o t",
      "o v",
      "o di",
      "o mo",
      "o sa",
      "o gra",
      "o peri",
      "o gni",
      "o pia",
      "o dio",
      "o vvi",
      "o ltre",
      "p t",
      "p ani",
      "p pia",
      "p len",
      "p posizione",
      "r no",
      "r rÃł",
      "r Ã¼",
      "r landa",
      "s z",
      "s mi",
      "s po",
      "s pri",
      "s par",
      "s ando",
      "s ino",
      "s can",
      "s cano",
      "s unto",
      "s propor",
      "s blo",
      "s quad",
      "s nia",
      "s vantaggi",
      "t on",
      "t ru",
      "t oni",
      "t Ã¹",
      "u er",
      "u tra",
      "u ten",
      "u sione",
      "u ffici",
      "u stria",
      "u cci",
      "u ssia",
      "u fficio",
      "v ra",
      "v ini",
      "v ente",
      "v anti",
      "v anza",
      "w as",
      "w at",
      "y i",
      "y o",
      "¿ ½",
      "Ã ¯",
      "ï ¿½",
      "re b",
      "re g",
      "re ti",
      "re vi",
      "re se",
      "re sa",
      "re sta",
      "re go",
      "re ste",
      "re qui",
      "re stri",
      "re tribu",
      "re cla",
      "re cente",
      "on data",
      "en g",
      "en i",
      "en ni",
      "en tamento",
      "ri d",
      "ri mo",
      "ri ma",
      "ri sta",
      "ri go",
      "ri ere",
      "ri por",
      "ri pri",
      "ri produ",
      "ri parti",
      "ri ssimo",
      "ri entra",
      "ri nazionali",
      "ri sie",
      "ti to",
      "ti po",
      "ti che",
      "ti camente",
      "ti litÃł",
      "ta s",
      "ta ssi",
      "ta menti",
      "ta ssa",
      "ta gna",
      "ta rci",
      "ta glio",
      "ta rlo",
      "ta bac",
      "te o",
      "te re",
      "te si",
      "te de",
      "te ro",
      "te sa",
      "te mi",
      "te me",
      "te go",
      "te sto",
      "te lli",
      "te mpi",
      "te rebbero",
      "ra q",
      "ra va",
      "ra lle",
      "ra dio",
      "ra zionale",
      "ra struttu",
      "ra mma",
      "ra ccol",
      "ra gg",
      "in su",
      "in chi",
      "in for",
      "in gra",
      "in dis",
      "in ge",
      "in contro",
      "in discu",
      "in segna",
      "in suffici",
      "in sosteni",
      "in centi",
      "in done",
      "in interro",
      "in tollera",
      "to tali",
      "to tal",
      "li a",
      "li s",
      "li to",
      "li ve",
      "li tti",
      "li tto",
      "li tta",
      "li mina",
      "zi amo",
      "co di",
      "co sa",
      "co sti",
      "co pen",
      "co esi",
      "co ope",
      "co sur",
      "an d",
      "an u",
      "an ch",
      "an che",
      "an nu",
      "si re",
      "si ti",
      "si mi",
      "si amo",
      "si bili",
      "si bile",
      "si gno",
      "si cura",
      "de s",
      "de v",
      "de lo",
      "de ten",
      "de ve",
      "de bo",
      "de tte",
      "de sione",
      "de cen",
      "de bb",
      "de lega",
      "de feri",
      "de dica",
      "de fici",
      "le t",
      "le le",
      "le se",
      "le tto",
      "le ser",
      "le ade",
      "le gge",
      "zion ato",
      "di to",
      "di men",
      "di gi",
      "di sta",
      "di ba",
      "di ffici",
      "di zionale",
      "di rle",
      "di stribu",
      "di vente",
      "ca o",
      "ca ri",
      "ca le",
      "ca so",
      "ca va",
      "ca sa",
      "ca tori",
      "ca tali",
      "ca mpi",
      "ca rico",
      "ca ccia",
      "ca tego",
      "ro sa",
      "ro mani",
      "ci ti",
      "ci ta",
      "ci le",
      "ci ano",
      "ci tato",
      "ci den",
      "ci Ã²",
      "ci tate",
      "ci pl",
      "la l",
      "la m",
      "la ta",
      "la va",
      "la ma",
      "la tti",
      "la ssi",
      "la sso",
      "la pp",
      "la ppro",
      "la mico",
      "men da",
      "men tando",
      "er re",
      "er on",
      "er ra",
      "er ba",
      "er Ã²",
      "er gia",
      "er rore",
      "con to",
      "con do",
      "con vi",
      "con sta",
      "con ver",
      "con ge",
      "con ces",
      "con cili",
      "con senso",
      "es o",
      "es to",
      "es tiva",
      "es pu",
      "es san",
      "es pan",
      "es pli",
      "mo vi",
      "mo stra",
      "or mente",
      "or goglio",
      "al te",
      "al to",
      "al tÃł",
      "gi or",
      "gi tto",
      "so c",
      "so stitu",
      "so gno",
      "so sp",
      "so ffer",
      "so ster",
      "so spen",
      "so fia",
      "do zione",
      "do lo",
      "do man",
      "do lla",
      "do ppi",
      "do gan",
      "vi c",
      "vi i",
      "vi r",
      "vi ce",
      "vi sta",
      "vi are",
      "vi tali",
      "un o",
      "un ani",
      "un cio",
      "un gh",
      "ch er",
      "ch ino",
      "va g",
      "va tore",
      "ma d",
      "ma s",
      "ma es",
      "ma ggi",
      "ma tori",
      "ma ssa",
      "ma tore",
      "ma gni",
      "ma schi",
      "ma latti",
      "bi el",
      "se du",
      "se ria",
      "se dere",
      "se tten",
      "se para",
      "se ttori",
      "se cuzione",
      "pa ce",
      "pa sse",
      "pa sso",
      "pa ritÃł",
      "pa cche",
      "vo i",
      "vo lo",
      "vo care",
      "no mina",
      "lo u",
      "lo de",
      "lo tti",
      "lo mÃ©",
      "tra r",
      "tra ta",
      "tra tti",
      "tra ge",
      "tra guar",
      "sa to",
      "sa ppi",
      "sa tlanti",
      "pre mi",
      "pre ten",
      "pre ven",
      "pre sso",
      "pre occu",
      "pre min",
      "pre para",
      "pre cau",
      "pre sente",
      "pre venti",
      "tu to",
      "tu tela",
      "tu rismo",
      "mi ti",
      "mi te",
      "mi ca",
      "mi la",
      "mi che",
      "da rci",
      "pro ba",
      "pro fu",
      "pro posi",
      "pro vvi",
      "pro cla",
      "pro pria",
      "fi lo",
      "fi du",
      "fi gu",
      "fi sca",
      "fi ori",
      "ce le",
      "ce llu",
      "ten za",
      "ten ga",
      "ten ere",
      "ten tati",
      "po c",
      "po i",
      "po l",
      "po ca",
      "pe tro",
      "pe rio",
      "su o",
      "su ale",
      "su lli",
      "su llo",
      "ve de",
      "ve gli",
      "ve ge",
      "ve ranno",
      "ve cchi",
      "ve ramente",
      "sta te",
      "sta tuni",
      "me ra",
      "me tri",
      "me mb",
      "me rica",
      "me desi",
      "me zzi",
      "sti a",
      "sti li",
      "ga s",
      "ga ri",
      "qu inte",
      "qu anti",
      "qu indi",
      "qu el",
      "tti ma",
      "tti no",
      "ne ra",
      "ne ggi",
      "ne llo",
      "ne llu",
      "ne utra",
      "ssi vi",
      "ssi mi",
      "ssi tÃł",
      "pi o",
      "pi ani",
      "pi Ã¹",
      "pi onieri",
      "one ri",
      "ter re",
      "ter si",
      "chi are",
      "na r",
      "na ti",
      "na vi",
      "na scon",
      "cu rare",
      "ina spri",
      "ar co",
      "ar mi",
      "du r",
      "du re",
      "du rare",
      "du bbi",
      "lu e",
      "lu i",
      "lu sse",
      "lu glio",
      "lu tilizzo",
      "ac cor",
      "ac conten",
      "tta zione",
      "tta mento",
      "tta bile",
      "tta tura",
      "go sla",
      "ali tÃł",
      "ali smo",
      "ali quo",
      "comp o",
      "comp on",
      "comp lica",
      "gu ada",
      "per si",
      "per lo",
      "per mi",
      "per segu",
      "per mette",
      "per cepi",
      "per sua",
      "ono re",
      "ono stan",
      "for ti",
      "be i",
      "be lli",
      "imp i",
      "imp u",
      "imp li",
      "imp ren",
      "imp lica",
      "imp ul",
      "all onta",
      "ap pen",
      "ap pren",
      "ap rire",
      "gli elo",
      "ere ditÃł",
      "col to",
      "col tÃł",
      "col tori",
      "col oni",
      "col anti",
      "col tura",
      "ani ma",
      "por re",
      "por te",
      "por tato",
      "gra du",
      "fa ce",
      "fa tto",
      "fa tta",
      "fa bb",
      "uni tÃł",
      "uni ver",
      "ver si",
      "ver Ãł",
      "ver go",
      "ver sione",
      "ven go",
      "tro ppo",
      "tro viamo",
      "dis to",
      "dis pre",
      "dis cre",
      "dis senti",
      "dis cipl",
      "au la",
      "au tore",
      "au tunno",
      "tori e",
      "bo snia",
      "as col",
      "as sente",
      "as senso",
      "man do",
      "man can",
      "ris co",
      "ris par",
      "ris cal",
      "ge ria",
      "ge ogra",
      "tte zza",
      "fica te",
      "fica mente",
      "fica bili",
      "ine qui",
      "ba t",
      "ba le",
      "ba ssi",
      "ba ttu",
      "ba mb",
      "ba tten",
      "inte ri",
      "inte sa",
      "bu on",
      "bu sti",
      "pri vato",
      "ste riale",
      "tri no",
      "tan gi",
      "com in",
      "com un",
      "com mer",
      "com batte",
      "com busti",
      "stra ti",
      "stra to",
      "stra da",
      "stra ni",
      "av esse",
      "cre de",
      "cre sc",
      "cono sc",
      "rio re",
      "rio ri",
      "inter ne",
      "inter governa",
      "pen sare",
      "pen sioni",
      "pen sion",
      "lla zione",
      "mu l",
      "mu sul",
      "cen denti",
      "ces e",
      "sse ro",
      "oc ciden",
      "indi re",
      "indi ri",
      "indi ff",
      "cri tica",
      "sci amo",
      "sci enti",
      "uro pe",
      "vol mente",
      "pu r",
      "pu to",
      "qui s",
      "qui lib",
      "bb ene",
      "sten do",
      "uti le",
      "chia rire",
      "lan cio",
      "lan desi",
      "ren de",
      "della l",
      "stan ti",
      "stitu zione",
      "cer ca",
      "cer ve",
      "rati vo",
      "den o",
      "den uncia",
      "rato re",
      "giu sta",
      "giu ris",
      "giu ste",
      "giu gno",
      "ron de",
      "sca r",
      "tras feri",
      "tras cina",
      "sp in",
      "alle anza",
      "esi to",
      "esi genza",
      "esi stente",
      "euro mediterrane",
      "ori gine",
      "ag ri",
      "ques tu",
      "mati ci",
      "fu o",
      "lti mo",
      "mer cosur",
      "mini mi",
      "mini steriale",
      "chie der",
      "gh ese",
      "gre sso",
      "contra tta",
      "presen ta",
      "presen tati",
      "medi a",
      "medi cina",
      "can te",
      "can di",
      "fo s",
      "fo bia",
      "im medi",
      "im min",
      "lin deboli",
      "conti n",
      "appro fon",
      "appro vvi",
      "appro vazione",
      "appro pria",
      "feri che",
      "fer re",
      "fer mare",
      "rin uncia",
      "rali smo",
      "libe ro",
      "libe rale",
      "mbi to",
      "mbi ente",
      "pon ga",
      "pon go",
      "pon gano",
      "val utiamo",
      "mar ca",
      "guar dare",
      "impor tato",
      "impor tazione",
      "impor tante",
      "impor tanti",
      "el d",
      "car b",
      "car ce",
      "car ne",
      "stri ali",
      "eren zia",
      "avvi so",
      "avvi cin",
      "ai uto",
      "ai uta",
      "regi oni",
      "ese mpio",
      "peri feriche",
      "comuni car",
      "comuni tari",
      "aggi orna",
      "is lamico",
      "ss ano",
      "ss ini",
      "ss enza",
      "ss ante",
      "sch mi",
      "inf lazioni",
      "inf rastruttu",
      "der Ã²",
      "dire i",
      "contro llo",
      "para g",
      "para gra",
      "para lle",
      "tran si",
      "tran qui",
      "tran satlanti",
      "impe dis",
      "impe gno",
      "intere ssi",
      "intere ssante",
      "ambi en",
      "ambi to",
      "ele tto",
      "mani fes",
      "rica ti",
      "rap presenti",
      "divi se",
      "poli tici",
      "poli tico",
      "posi zioni",
      "ttiva mente",
      "pia ci",
      "pia ce",
      "pia tta",
      "pia cere",
      "gola ritÃł",
      "organi smo",
      "ari tÃł",
      "ur gente",
      "indu bbi",
      "indu striali",
      "limi tati",
      "giun to",
      "continu e",
      "ad destra",
      "bbi amo",
      "eti ca",
      "eti opia",
      "diver si",
      "diver sitÃł",
      "mili ar",
      "parti cola",
      "dente mente",
      "effe tto",
      "fun zione",
      "gen i",
      "gen o",
      "gen ze",
      "len ta",
      "len co",
      "nor de",
      "nor mati",
      "sor pren",
      "ul tra",
      "ul terio",
      "defini zione",
      "presi den",
      "presi dente",
      "presi edu",
      "forni re",
      "conside rare",
      "af gh",
      "af rica",
      "af fari",
      "far ma",
      "far mace",
      "svi zze",
      "usci ta",
      "rela zioni",
      "deci sione",
      "mpli amento",
      "bie ttivo",
      "meri di",
      "veni r",
      "osserva zione",
      "ben i",
      "cin que",
      "cin quan",
      "cla ssi",
      "elabo rare",
      "elabo razione",
      "economi a",
      "economi co",
      "economi ci",
      "fac ente",
      "fac cia",
      "fac endo",
      "lun ghe",
      "otti mo",
      "otti mi",
      "ppo ggio",
      "scon cer",
      "regola ri",
      "regola mentazione",
      "insi eme",
      "invi to",
      "cola to",
      "cola zione",
      "demo cra",
      "legi tti",
      "dica zione",
      "sol di",
      "fra m",
      "fra gi",
      "ide o",
      "mon di",
      "spa zio",
      "spa vento",
      "stu di",
      "zz ando",
      "ener gi",
      "ener ge",
      "inca rico",
      "inca pacitÃł",
      "inno vazione",
      "inno cenza",
      "inclu sione",
      "dimo stre",
      "diff erenzia",
      "capi to",
      "capi tali",
      "consenti rÃł",
      "esclu sione",
      "acqui sto",
      "ffer ta",
      "interroga tivo",
      "orien tati",
      "affi da",
      "ampi e",
      "ber t",
      "fen o",
      "gran di",
      "sc ru",
      "richie de",
      "tolle ranza",
      "anzi tutto",
      "siste re",
      "late rale",
      "espri me",
      "espri mere",
      "esam ina",
      "esam inare",
      "mor ti",
      "uncia ta",
      "met ter",
      "gover no",
      "formu le",
      "impre ssione",
      "assu r",
      "parla mentari",
      "individu o",
      "giusti zia",
      "giusti fica",
      "adegu ata",
      "ringra ziar",
      "registra zione",
      "deside ra",
      "tecnologi a",
      "tecnologi e",
      "svilu ppa",
      "bene fici",
      "ffica cia",
      "ira q",
      "ki stan",
      "prati ca",
      "ses suali",
      "scen do",
      "uo mo",
      "rice v",
      "rifle tte",
      "tele fon",
      "tele foni",
      "inci dente",
      "sion ali",
      "sion ale",
      "detta gli",
      "dichia razione",
      "cata stro",
      "concre ti",
      "ester no",
      "ester ne",
      "ester na",
      "espor tazione",
      "eserci tare",
      "eserci zio",
      "possi bili",
      "suffici enza",
      "arri cchi",
      "riser vati",
      "pubbli co",
      "pubbli ci",
      "pubbli che",
      "agen da",
      "soddisfa tti",
      "asi lo",
      "ada tta",
      "identi tÃł",
      "obbli go",
      "pla u",
      "sani tarie",
      "inda gine",
      "ann uncio",
      "dipen denza",
      "lascia ta",
      "sempli cemente",
      "poten ziali",
      "terri tori",
      "competi tivi",
      "collo qui",
      "auto mobili",
      "aspe tto",
      "aspe tta",
      "giudi zia",
      "giudi zio",
      "vanta ggio",
      "bal cani",
      "et ni",
      "fron te",
      "fron tali",
      "hi p",
      "pun ti",
      "slo va",
      "slo veni",
      "ugu aglianza",
      "umani tÃł",
      "risol to",
      "comi tato",
      "mol da",
      "biso gna",
      "pale sti",
      "prossi mi",
      "progra m",
      "accogli enza",
      "competen za",
      "impo ssi",
      "discrimina zione",
      "indipen denza",
      "questa u",
      "spie ga",
      "sinda cali",
      "ecce zione",
      "ecce ll",
      "responsa bili",
      "limpor tanza",
      "fondamenta li",
      "equilib rio",
      "agi re",
      "aere o",
      "ameri cani",
      "eva sione",
      "fal li",
      "imb alla",
      "mone tari",
      "offer ta",
      "rien na",
      "rifi u",
      "insta u",
      "liqui dare",
      "deri vati",
      "citta dini",
      "gion amento",
      "sopra vvi",
      "presu ppo",
      "quan to",
      "quad ro",
      "pien o",
      "picco li",
      "armoni zzazione",
      "imposta zione",
      "erebbe ro",
      "auten tica",
      "interpre tazione",
      "scetti ci",
      "traspa renza",
      "imma gine",
      "elen co",
      "comunica zioni",
      "aggiu sta",
      "trans frontali",
      "estremi smo",
      "introdu zione",
      "cultura le",
      "alterna tiva",
      "azi en",
      "fro de",
      "glo bali",
      "irre ali",
      "ju gosla",
      "plu rienna",
      "sorg ere",
      "smante lla",
      "reddi ti",
      "enor me",
      "risa rci",
      "riper cuo",
      "inve cchia",
      "incre menta",
      "tossi citÃł",
      "analo ga",
      "depu tati",
      "distin gu",
      "consape vole",
      "esau ri",
      "molti plica",
      "alt ronde",
      "altri menti",
      "doves se",
      "vac cina",
      "macch ina",
      "meto do",
      "chiu dere",
      "compag ni",
      "appe llo",
      "buro crati",
      "comme mo",
      "commerci ali",
      "cresce re",
      "cristi ani",
      "carbu ranti",
      "esecu tivo",
      "isra eli",
      "afri cana",
      "turco ciprio",
      "inadegu ate",
      "edi li",
      "igi an",
      "ipo cri",
      "mmet ria",
      "odi er",
      "ripri sti",
      "inchi esta",
      "indis pensa",
      "inge gno",
      "indiscu ti",
      "debo le",
      "decen ni",
      "leser ci",
      "diba tti",
      "catali zza",
      "erba igian",
      "conver genza",
      "espu l",
      "sostitu i",
      "ungh ere",
      "biel or",
      "setten tri",
      "statuni ten",
      "lusse mbu",
      "onostan te",
      "impren ditori",
      "allonta na",
      "univer sitÃł",
      "rispar mi",
      "inequi voca",
      "cresc ente",
      "conosc enza",
      "musul man",
      "quilib rio",
      "approvvi gionamento",
      "farmace uti"
    ]
  }
}